<pad>	0
<unk>	0
<s>	0
</s>	0
<start>	0
<end>	0
▁क	-0
▁t	-1
he	-2
▁a	-3
▁स	-4
▁ह	-5
in	-6
▁the	-7
▁o	-8
▁प	-9
re	-10
▁म	-11
▁s	-12
er	-13
nd	-14
्र	-15
▁w	-16
at	-17
on	-18
ार	-19
is	-20
▁है	-21
ें	-22
▁ज	-23
▁अ	-24
▁के	-25
en	-26
▁व	-27
या	-28
▁of	-29
▁न	-30
it	-31
▁c	-32
or	-33
▁b	-34
es	-35
ed	-36
▁f	-37
▁ब	-38
ou	-39
▁p	-40
▁उ	-41
▁त	-42
ों	-43
an	-44
▁द	-45
al	-46
▁ल	-47
ar	-48
▁in	-49
▁and	-50
▁औ	-51
ने	-52
▁और	-53
ing	-54
▁में	-55
र्	-56
▁र	-57
▁to	-58
▁m	-59
▁d	-60
ion	-61
ता	-62
▁h	-63
्य	-64
▁की	-65
▁कर	-66
ान	-67
▁(	-68
▁कि	-69
ic	-70
as	-71
▁प्र	-72
▁आ	-73
▁को	-74
le	-75
िक	-76
om	-77
▁से	-78
▁th	-79
ent	-80
ll	-81
्त	-82
▁भ	-83
▁n	-84
▁का	-85
▁A	-86
ना	-87
▁T	-88
▁इ	-89
▁be	-90
▁ग	-91
ve	-92
ित	-93
▁e	-94
▁I	-95
ct	-96
▁re	-97
▁is	-98
▁पर	-99
▁S	-100
▁य	-101
ाल	-102
▁हो	-103
ro	-104
▁l	-105
▁ए	-106
st	-107
▁y	-108
ot	-109
▁g	-110
ut	-111
्व	-112
id	-113
▁च	-114
ही	-115
se	-116
न्	-117
▁for	-118
ation	-119
▁लि	-120
▁श	-121
ur	-122
ते	-123
▁वि	-124
im	-125
ce	-126
▁wh	-127
ly	-128
▁सं	-129
ay	-130
ad	-131
▁जा	-132
▁हैं	-133
▁इस	-134
ver	-135
▁you	-136
▁उस	-137
am	-138
▁u	-139
के	-140
ला	-141
▁ख	-142
▁C	-143
ोग	-144
था	-145
ow	-146
्ष	-147
▁The	-148
ति	-149
ड़	-150
▁on	-151
▁एक	-152
स्	-153
▁P	-154
▁M	-155
et	-156
▁H	-157
ुम	-158
il	-159
िय	-160
ir	-161
▁-	-162
▁लिए	-163
हा	-164
ig	-165
▁1	-166
▁that	-167
▁सम	-168
हीं	-169
्या	-170
ती	-171
ch	-172
▁फ	-173
्ट	-174
▁अप	-175
▁उन	-176
▁जो	-177
▁तो	-178
▁he	-179
ment	-180
▁B	-181
▁सा	-182
▁नहीं	-183
ol	-184
वा	-185
ith	-186
▁दे	-187
▁it	-188
▁as	-189
▁तुम	-190
▁नि	-191
ra	-192
▁हम	-193
रा	-194
से	-195
दा	-196
िया	-197
ill	-198
▁an	-199
▁or	-200
▁भी	-201
od	-202
▁not	-203
if	-204
▁W	-205
▁ने	-206
त्र	-207
का	-208
ल्	-209
▁st	-210
सी	-211
ess	-212
ul	-213
▁with	-214
ter	-215
▁रा	-216
▁जि	-217
▁pro	-218
ri	-219
her	-220
▁are	-221
ge	-222
▁G	-223
▁D	-224
▁de	-225
▁ha	-226
▁'	-227
▁या	-228
▁बा	-229
री	-230
कार	-231
गा	-232
ate	-233
▁con	-234
नी	-235
ab	-236
▁R	-237
▁su	-238
▁we	-239
क्ष	-240
ld	-241
▁किया	-242
ज़	-243
▁अन	-244
▁se	-245
ास	-246
rom	-247
op	-248
▁यह	-249
res	-250
▁ही	-251
ले	-252
▁2	-253
ers	-254
सा	-255
▁L	-256
th	-257
ष्ट	-258
nt	-259
ak	-260
की	-261
ेश	-262
▁com	-263
ारा	-264
कर	-265
ist	-266
▁by	-267
▁sh	-268
▁N	-269
मा	-270
▁करने	-271
▁थ	-272
ht	-273
ंग	-274
▁अध	-275
▁मु	-276
pe	-277
त्	-278
ain	-279
▁लोग	-280
▁was	-281
▁वह	-282
िर	-283
▁have	-284
ity	-285
▁they	-286
iv	-287
▁from	-288
▁स्	-289
▁ex	-290
▁them	-291
▁हु	-292
▁will	-293
क्त	-294
est	-295
▁कु	-296
all	-297
us	-298
em	-299
▁O	-300
and	-301
कि	-302
▁दि	-303
▁F	-304
▁v	-305
▁who	-306
▁E	-307
ah	-308
▁k	-309
▁कार	-310
▁रह	-311
ाम	-312
▁ड	-313
ore	-314
▁this	-315
ive	-316
ich	-317
ie	-318
ac	-319
ant	-320
um	-321
▁"	-322
▁उप	-323
ारे	-324
ाह	-325
न्ह	-326
qu	-327
▁सक	-328
द्	-329
ction	-330
▁Ind	-331
▁has	-332
▁r	-333
▁अपने	-334
pp	-335
ियों	-336
ies	-337
▁He	-338
art	-339
ारी	-340
▁at	-341
▁वे	-342
मान	-343
▁था	-344
ure	-345
os	-346
▁ले	-347
▁ऐ	-348
िल	-349
▁which	-350
ia	-351
स्त	-352
un	-353
ort	-354
▁ध	-355
ould	-356
रे	-357
▁ne	-358
▁All	-359
वि	-360
ूप	-361
el	-362
▁their	-363
्च	-364
गे	-365
oc	-366
ard	-367
▁पू	-368
▁सु	-369
्री	-370
▁भार	-371
red	-372
ight	-373
भा	-374
our	-375
ind	-376
ord	-377
▁his	-378
▁जिस	-379
ंत	-380
00	-381
▁आप	-382
▁al	-383
में	-384
▁गया	-385
▁पह	-386
ैं	-387
▁उन्ह	-388
ओं	-389
pt	-390
ंध	-391
▁तथा	-392
▁do	-393
ous	-394
▁वाल	-395
दि	-396
▁all	-397
्ह	-398
▁le	-399
▁कुछ	-400
ust	-401
ose	-402
▁ch	-403
ली	-404
te	-405
▁छ	-406
ther	-407
▁In	-408
▁किसी	-409
▁ख़	-410
▁whe	-411
▁tr	-412
▁द्व	-413
ीन	-414
▁तुम्ह	-415
ूल	-416
▁K	-417
▁दो	-418
ong	-419
▁अनु	-420
▁स्व	-421
ud	-422
age	-423
ag	-424
▁साथ	-425
ome	-426
ial	-427
ाप	-428
ुदा	-429
▁मे	-430
▁Allah	-431
▁Th	-432
▁जब	-433
को	-434
▁And	-435
देश	-436
▁घ	-437
▁19	-438
ame	-439
म्	-440
▁रूप	-441
खा	-442
▁We	-443
ोज	-444
▁चाह	-445
▁अधिक	-446
▁U	-447
▁कोई	-448
▁निर्	-449
ंद	-450
▁wor	-451
ंड	-452
ाय	-453
cc	-454
ated	-455
ans	-456
ुर	-457
द्ध	-458
ance	-459
ount	-460
▁उनके	-461
▁विश	-462
▁your	-463
गी	-464
▁ला	-465
ार्	-466
▁me	-467
▁थे	-468
▁sa	-469
▁ट	-470
..	-471
▁तक	-472
भी	-473
▁द्वारा	-474
▁pl	-475
ip	-476
▁go	-477
न्द	-478
ect	-479
▁dis	-480
ढ़	-481
▁करें	-482
▁करते	-483
▁ab	-484
▁पा	-485
▁व्य	-486
▁प्रति	-487
rou	-488
▁राज	-489
गर	-490
▁लोगों	-491
▁भा	-492
av	-493
ast	-494
ाना	-495
र्व	-496
▁बना	-497
ear	-498
▁दिया	-499
नों	-500
▁क्ष	-501
▁परि	-502
▁us	-503
क़	-504
ide	-505
ry	-506
▁वर्	-507
able	-508
ost	-509
योग	-510
▁India	-511
त्त	-512
▁can	-513
ff	-514
▁im	-515
▁any	-516
▁जाए	-517
▁बह	-518
▁there	-519
▁but	-520
लाह	-521
ंत्र	-522
ok	-523
ुत	-524
▁un	-525
▁pe	-526
▁कह	-527
▁भारत	-528
धार	-529
nder	-530
▁मा	-531
now	-532
▁comp	-533
▁फिर	-534
▁ad	-535
जी	-536
ये	-537
▁en	-538
▁man	-539
ाद	-540
▁up	-541
ish	-542
िए	-543
▁राष्ट	-544
og	-545
▁तर	-546
▁अल्	-547
▁सि	-548
▁कार्य	-549
ary	-550
ap	-551
क्	-552
▁one	-553
▁ये	-554
▁him	-555
रण	-556
▁मैं	-557
▁j	-558
्ञ	-559
ुन	-560
▁अव	-561
▁कहा	-562
क्र	-563
▁so	-564
▁स्थ	-565
ult	-566
▁जाता	-567
▁J	-568
बंध	-569
▁V	-570
ice	-571
▁been	-572
्छ	-573
▁other	-574
▁per	-575
▁रहे	-576
▁उसके	-577
क्ति	-578
so	-579
फ़	-580
▁क्या	-581
▁रख	-582
out	-583
▁इन	-584
▁सब	-585
one	-586
ople	-587
▁res	-588
▁were	-589
ical	-590
per	-591
▁ई	-592
ूर	-593
ष्	-594
▁करना	-595
▁अल्लाह	-596
ru	-597
ions	-598
▁ज़	-599
ik	-600
ence	-601
ड़ा	-602
gh	-603
au	-604
नि	-605
ib	-606
▁ख़ुदा	-607
▁had	-608
ress	-609
▁cont	-610
pl	-611
▁It	-612
▁अपनी	-613
ire	-614
▁थी	-615
द्य	-616
▁सर	-617
ंच	-618
ail	-619
ानी	-620
ब्	-621
▁3	-622
जा	-623
न्न	-624
▁फ़	-625
▁those	-626
iz	-627
▁मह	-628
are	-629
vel	-630
01	-631
▁am	-632
च्छ	-633
ake	-634
ine	-635
▁when	-636
ime	-637
▁said	-638
▁ag	-639
त्य	-640
र्ण	-641
ase	-642
▁जी	-643
स्थ	-644
▁Y	-645
▁people	-646
▁बात	-647
ations	-648
▁know	-649
मी	-650
▁हुए	-651
्यों	-652
ign	-653
दी	-654
very	-655
ue	-656
▁shall	-657
पर	-658
orm	-659
▁सू	-660
ile	-661
▁inc	-662
▁विक	-663
▁उन्हें	-664
▁करता	-665
▁under	-666
▁सी	-667
▁out	-668
▁/	-669
vers	-670
ang	-671
ade	-672
्रे	-673
▁ind	-674
▁part	-675
▁होता	-676
िन	-677
ub	-678
वाल	-679
ath	-680
▁“	-681
श्च	-682
ings	-683
▁cl	-684
▁क़	-685
▁no	-686
ens	-687
ेत्र	-688
▁what	-689
▁ओ	-690
▁int	-691
ace	-692
rit	-693
ोंने	-694
▁रहा	-695
ड़े	-696
▁bel	-697
▁its	-698
▁ar	-699
ach	-700
▁God	-701
▁सकता	-702
कृ	-703
िका	-704
▁also	-705
ep	-706
▁co	-707
▁उसे	-708
ाइ	-709
ाप्त	-710
▁if	-711
चार	-712
ian	-713
▁हि	-714
▁दी	-715
▁Ch	-716
ass	-717
▁our	-718
▁बी	-719
act	-720
▁ev	-721
र्थ	-722
▁जान	-723
ber	-724
बर	-725
च्च	-726
▁गु	-727
▁St	-728
मे	-729
वर्	-730
ूस	-731
▁_	-732
▁क्षेत्र	-733
▁मान	-734
▁देख	-735
टा	-736
▁comm	-737
ious	-738
lic	-739
▁may	-740
ren	-741
▁बहुत	-742
▁समय	-743
▁राष्ट्र	-744
ड़ी	-745
▁te	-746
ज्ञ	-747
reat	-748
▁मि	-749
दान	-750
ise	-751
▁Lord	-752
पू	-753
▁app	-754
हर	-755
▁पु	-756
भि	-757
du	-758
र्म	-759
▁जै	-760
ual	-761
▁बाद	-762
ident	-763
ोल	-764
▁पै	-765
vern	-766
ree	-767
शन	-768
वन	-769
▁आय	-770
port	-771
▁acc	-772
ook	-773
ory	-774
ition	-775
▁sc	-776
erv	-777
fore	-778
ियम	-779
▁This	-780
कों	-781
fter	-782
ack	-783
टी	-784
fe	-785
पति	-786
वे	-787
▁तरह	-788
▁year	-789
▁सह	-790
old	-791
▁बे	-792
▁वाले	-793
urn	-794
▁sub	-795
▁Sh	-796
▁would	-797
▁उन्होंने	-798
▁हुआ	-799
▁काम	-800
▁spe	-801
▁पास	-802
वी	-803
ike	-804
▁देश	-805
▁sp	-806
▁पहले	-807
▁only	-808
ject	-809
▁bec	-810
ove	-811
▁अंत	-812
▁such	-813
hed	-814
▁rel	-815
ोक	-816
form	-817
▁”	-818
प्र	-819
▁हमने	-820
ेष	-821
चना	-822
▁tw	-823
▁उत्	-824
▁time	-825
स्था	-826
▁pre	-827
्रीय	-828
▁ना	-829
ause	-830
▁prov	-831
▁होगा	-832
sel	-833
▁जिन	-834
ुल	-835
▁work	-836
▁po	-837
▁उनकी	-838
ater	-839
क्षा	-840
ric	-841
▁यदि	-842
ted	-843
▁तुम्हारे	-844
▁rec	-845
▁then	-846
ational	-847
ौर	-848
▁गई	-849
rib	-850
▁over	-851
▁Go	-852
▁qu	-853
झे	-854
▁बि	-855
▁गए	-856
ख़	-857
▁प्राप्त	-858
्रा	-859
धान	-860
▁सरकार	-861
▁अन्य	-862
▁संबंध	-863
we	-864
▁दिन	-865
ities	-866
▁ear	-867
▁होने	-868
▁fo	-869
▁ओर	-870
▁हू	-871
न्त	-872
▁वर्ष	-873
▁made	-874
▁day	-875
▁पी	-876
▁सम्	-877
धि	-878
▁belie	-879
ild	-880
यों	-881
▁सभी	-882
▁कम	-883
एँ	-884
▁छो	-885
▁विश्व	-886
▁As	-887
हां	-888
▁चु	-889
lect	-890
ound	-891
▁ऐसे	-892
▁5	-893
▁should	-894
▁करो	-895
िक्ष	-896
ward	-897
ied	-898
▁हमारे	-899
गत	-900
लि	-901
▁राष्ट्रपति	-902
स्ता	-903
करण	-904
वं	-905
▁more	-906
▁about	-907
▁नाम	-908
▁4	-909
▁like	-910
▁than	-911
vernment	-912
▁प्रा	-913
▁my	-914
दार	-915
ces	-916
▁some	-917
wn	-918
▁झ	-919
▁निक	-920
ution	-921
श्य	-922
▁into	-923
▁प्रकार	-924
▁बद	-925
ंक	-926
▁Pro	-927
▁सकते	-928
एं	-929
टे	-930
▁साम	-931
▁new	-932
ife	-933
▁[	-934
tern	-935
▁ता	-936
ert	-937
▁ass	-938
▁em	-939
▁say	-940
▁bet	-941
भाव	-942
▁चाहिए	-943
सर	-944
ite	-945
uth	-946
िश	-947
ीय	-948
तीय	-949
ful	-950
▁count	-951
▁मिल	-952
▁&	-953
ark	-954
▁off	-955
▁200	-956
▁इसके	-957
▁fe	-958
▁Com	-959
ग्र	-960
▁बु	-961
aj	-962
▁ऊ	-963
तर	-964
▁बढ़	-965
▁rem	-966
▁But	-967
स्ट	-968
▁Wh	-969
▁cons	-970
▁trans	-971
वर	-972
way	-973
्स	-974
iss	-975
▁They	-976
▁pr	-977
िप	-978
▁किए	-979
▁उसकी	-980
चा	-981
velop	-982
▁हर	-983
ons	-984
त्व	-985
▁जाने	-986
ness	-987
▁होती	-988
बा	-989
sh	-990
),	-991
▁Se	-992
हाँ	-993
ंप	-994
जन	-995
...	-996
▁अच्छ	-997
own	-998
शा	-999
ोजना	-1000
तिक	-1001
stit	-1002
gr	-1003
ूम	-1004
▁two	-1005
दर्	-1006
cept	-1007
ific	-1008
▁ची	-1009
▁नी	-1010
▁दूस	-1011
▁रस	-1012
▁reg	-1013
माण	-1014
oy	-1015
▁ईमान	-1016
ank	-1017
रो	-1018
▁ठ	-1019
hen	-1020
शी	-1021
▁अगर	-1022
▁करे	-1023
पूर्ण	-1024
यी	-1025
ments	-1026
बी	-1027
मत	-1028
िति	-1029
▁good	-1030
▁ऐसा	-1031
▁एवं	-1032
▁हों	-1033
गार	-1034
me	-1035
ास्त	-1036
▁these	-1037
ved	-1038
▁राज्य	-1039
द्योग	-1040
▁समझ	-1041
▁form	-1042
▁पहु	-1043
▁after	-1044
▁ro	-1045
▁कारण	-1046
▁act	-1047
▁So	-1048
ily	-1049
▁Un	-1050
▁विकास	-1051
सार	-1052
▁des	-1053
पाद	-1054
▁अब	-1055
led	-1056
▁व्यक्ति	-1057
▁Re	-1058
ates	-1059
ient	-1060
▁201	-1061
▁before	-1062
▁भारतीय	-1063
▁लग	-1064
ond	-1065
ची	-1066
ात	-1067
▁(_	-1068
▁ent	-1069
ph	-1070
▁pers	-1071
▁कृ	-1072
▁ob	-1073
्यू	-1074
ne	-1075
▁मो	-1076
ेंगे	-1077
ध्य	-1078
cess	-1079
▁मुझे	-1080
ave	-1081
▁De	-1082
वल	-1083
त्म	-1084
▁रसूल	-1085
ts	-1086
▁हुई	-1087
▁again	-1088
llow	-1089
ाली	-1090
▁हा	-1091
ुक्त	-1092
ाइल	-1093
resident	-1094
▁bl	-1095
द्र	-1096
▁स्त	-1097
ors	-1098
वार	-1099
ple	-1100
टर	-1101
▁dec	-1102
▁His	-1103
cy	-1104
eng	-1105
▁see	-1106
▁right	-1107
ेज	-1108
ght	-1109
▁जन	-1110
ink	-1111
किन	-1112
▁gu	-1113
▁पूर्व	-1114
▁fir	-1115
धा	-1116
यन	-1117
▁व्या	-1118
ower	-1119
ष्ठ	-1120
row	-1121
ेल	-1122
▁लगा	-1123
ज़ा	-1124
मु	-1125
▁ac	-1126
तन	-1127
▁मूल	-1128
▁sy	-1129
▁दु	-1130
▁क्यों	-1131
▁her	-1132
▁ra	-1133
▁life	-1134
ob	-1135
rough	-1136
▁An	-1137
▁उसने	-1138
erm	-1139
पी	-1140
cial	-1141
▁लेकिन	-1142
▁दिखा	-1143
▁लिया	-1144
▁बन	-1145
eth	-1146
ced	-1147
▁Con	-1148
क्रम	-1149
aw	-1150
▁वा	-1151
तः	-1152
▁‘	-1153
ener	-1154
▁giv	-1155
▁world	-1156
▁call	-1157
▁दोनों	-1158
▁Indian	-1159
▁जाती	-1160
ism	-1161
▁(1	-1162
िम	-1163
▁प्रश	-1164
▁तुम्हें	-1165
arm	-1166
▁Pr	-1167
लों	-1168
▁मौ	-1169
pect	-1170
▁सद	-1171
▁fl	-1172
▁क्र	-1173
दे	-1174
▁set	-1175
▁where	-1176
▁pres	-1177
ोर	-1178
▁वै	-1179
लय	-1180
▁अस	-1181
rent	-1182
▁being	-1183
वाद	-1184
▁through	-1185
▁अपना	-1186
ाला	-1187
▁उपयोग	-1188
▁ऐसी	-1189
लग	-1190
ange	-1191
▁खा	-1192
▁You	-1193
▁develop	-1194
▁way	-1195
).	-1196
्ड	-1197
other	-1198
▁आव	-1199
▁विशेष	-1200
▁जीवन	-1201
▁चल	-1202
▁होते	-1203
▁every	-1204
▁6	-1205
▁cre	-1206
▁अभि	-1207
ning	-1208
▁inv	-1209
▁great	-1210
हाय	-1211
चे	-1212
▁à	-1213
▁dif	-1214
▁need	-1215
ally	-1216
ft	-1217
ves	-1218
xt	-1219
▁ग्र	-1220
ating	-1221
eed	-1222
▁There	-1223
li	-1224
ever	-1225
िंग	-1226
▁प्रदान	-1227
uring	-1228
int	-1229
धिक	-1230
तों	-1231
ck	-1232
▁बारे	-1233
▁रही	-1234
igh	-1235
end	-1236
▁बीच	-1237
ative	-1238
▁ढ	-1239
▁If	-1240
▁बै	-1241
ull	-1242
oth	-1243
व्य	-1244
▁रु	-1245
▁Bh	-1246
les	-1247
▁वाला	-1248
▁serv	-1249
▁मुख	-1250
▁down	-1251
ween	-1252
▁sec	-1253
▁मन	-1254
▁thou	-1255
▁make	-1256
कारी	-1257
its	-1258
▁बार	-1259
फल	-1260
▁भाग	-1261
olog	-1262
▁country	-1263
ided	-1264
▁att	-1265
▁यु	-1266
▁उत्त	-1267
ax	-1268
▁add	-1269
चित	-1270
।"	-1271
▁समा	-1272
▁br	-1273
काश	-1274
▁खु	-1275
▁श्री	-1276
▁Is	-1277
▁शिक्ष	-1278
▁निय	-1279
▁जैसे	-1280
▁pol	-1281
ages	-1282
▁does	-1283
▁cent	-1284
▁Government	-1285
▁President	-1286
▁produ	-1287
ेक	-1288
▁follow	-1289
▁between	-1290
▁name	-1291
▁सहाय	-1292
pr	-1293
ular	-1294
▁used	-1295
▁वास्त	-1296
▁स्था	-1297
ublic	-1298
▁उसका	-1299
ंभ	-1300
▁ऑ	-1301
तना	-1302
ible	-1303
pen	-1304
▁आधार	-1305
ठा	-1306
ख्या	-1307
▁ke	-1308
डी	-1309
िस	-1310
hi	-1311
वेश	-1312
▁En	-1313
▁pos	-1314
ood	-1315
▁आज	-1316
▁सेवा	-1317
ural	-1318
षण	-1319
stem	-1320
ised	-1321
▁well	-1322
▁could	-1323
▁Min	-1324
▁first	-1325
िला	-1326
▁कै	-1327
▁did	-1328
▁न्या	-1329
कता	-1330
▁7	-1331
pos	-1332
gan	-1333
ble	-1334
ty	-1335
▁Him	-1336
als	-1337
▁inte	-1338
▁Act	-1339
▁come	-1340
oci	-1341
▁person	-1342
▁जाएगा	-1343
्ल	-1344
▁देने	-1345
▁years	-1346
▁8	-1347
und	-1348
हित	-1349
▁eff	-1350
षा	-1351
lp	-1352
▁For	-1353
▁most	-1354
▁केवल	-1355
▁चीज़	-1356
धन	-1357
▁col	-1358
▁उनका	-1359
any	-1360
▁ret	-1361
▁दृ	-1362
▁upon	-1363
▁गा	-1364
▁Ex	-1365
▁many	-1366
ल्प	-1367
▁माल	-1368
▁हमें	-1369
▁प्रयोग	-1370
pport	-1371
▁मेरे	-1372
ून	-1373
▁sign	-1374
▁रब	-1375
▁0	-1376
ग़	-1377
ving	-1378
ents	-1379
ार्थ	-1380
▁आवश्य	-1381
ature	-1382
ility	-1383
▁dist	-1384
con	-1385
▁सो	-1386
▁unt	-1387
▁जिसमें	-1388
▁how	-1389
▁even	-1390
▁back	-1391
ited	-1392
ूद	-1393
lud	-1394
▁very	-1395
ज्ञान	-1396
▁earth	-1397
क्षण	-1398
▁हूँ	-1399
▁Comm	-1400
▁दर	-1401
▁बो	-1402
▁वही	-1403
▁num	-1404
▁विचार	-1405
▁सर्व	-1406
रिक	-1407
fer	-1408
▁ord	-1409
ather	-1410
ven	-1411
▁mess	-1412
▁निश्च	-1413
▁ed	-1414
▁मार्	-1415
▁स्थान	-1416
▁among	-1417
ियां	-1418
ting	-1419
ister	-1420
▁18	-1421
▁get	-1422
▁pur	-1423
iew	-1424
णी	-1425
▁own	-1426
र्य	-1427
▁ताकि	-1428
▁स्प	-1429
uc	-1430
▁against	-1431
ित्र	-1432
▁पैदा	-1433
▁मै	-1434
▁tra	-1435
air	-1436
पित	-1437
ुट	-1438
self	-1439
amm	-1440
elie	-1441
▁rep	-1442
▁वाली	-1443
uch	-1444
▁प्रत्य	-1445
्न	-1446
न्तु	-1447
aking	-1448
▁सबसे	-1449
▁इसे	-1450
ha	-1451
▁बड़ा	-1452
▁उसी	-1453
रों	-1454
िता	-1455
▁<	-1456
▁help	-1457
irect	-1458
ंस	-1459
▁जाना	-1460
▁निर्धार	-1461
त्ता	-1462
िनियम	-1463
hes	-1464
यास	-1465
▁माम	-1466
ission	-1467
▁हमारी	-1468
तु	-1469
▁अथ	-1470
▁inst	-1471
▁विष	-1472
▁hand	-1473
▁पार	-1474
get	-1475
ati	-1476
लब्	-1477
▁अधिनियम	-1478
ute	-1479
▁take	-1480
र्ष	-1481
र्क	-1482
▁रो	-1483
▁end	-1484
▁sent	-1485
▁धारा	-1486
हार	-1487
▁देता	-1488
▁तब	-1489
ision	-1490
ures	-1491
▁val	-1492
▁जाते	-1493
▁अधिकार	-1494
of	-1495
ased	-1496
▁शु	-1497
▁दा	-1498
▁इसमें	-1499
ेर	-1500
chn	-1501
▁writ	-1502
▁राष्ट्रीय	-1503
▁आर	-1504
लिए	-1505
ूत	-1506
▁कंप	-1507
▁char	-1508
▁mod	-1509
▁Ad	-1510
▁mem	-1511
ract	-1512
201	-1513
भाग	-1514
▁आस	-1515
▁डि	-1516
▁use	-1517
formation	-1518
▁उपलब्	-1519
ियाँ	-1520
▁योजना	-1521
▁Ne	-1522
ick	-1523
▁disc	-1524
▁bu	-1525
▁she	-1526
▁believe	-1527
▁gr	-1528
round	-1529
▁>	-1530
▁given	-1531
not	-1532
▁उत्पाद	-1533
ब्द	-1534
पा	-1535
▁ap	-1536
▁जिसे	-1537
▁व्यव	-1538
ants	-1539
ुनिया	-1540
▁बस	-1541
▁system	-1542
▁लिख	-1543
read	-1544
▁अथवा	-1545
rong	-1546
द्योगिक	-1547
▁turn	-1548
▁mon	-1549
▁just	-1550
▁State	-1551
ished	-1552
▁child	-1553
▁हे	-1554
ee	-1555
ock	-1556
ices	-1557
बे	-1558
▁because	-1559
▁संदेश	-1560
▁must	-1561
▁requ	-1562
▁ph	-1563
▁पश्च	-1564
▁ins	-1565
▁On	-1566
▁फ़ाइल	-1567
▁mat	-1568
▁import	-1569
▁सामान	-1570
▁Sc	-1571
कृत	-1572
ूह	-1573
▁cert	-1574
ताओं	-1575
▁To	-1576
वरण	-1577
▁परवर	-1578
▁बल्	-1579
▁शाम	-1580
्यान	-1581
▁उससे	-1582
ंज	-1583
ital	-1584
दिगार	-1585
ives	-1586
मिक	-1587
▁सूचना	-1588
▁शुर	-1589
वान	-1590
▁क्योंकि	-1591
▁दर्	-1592
ii	-1593
up	-1594
▁उनसे	-1595
सं	-1596
belie	-1597
▁ye	-1598
▁परवरदिगार	-1599
▁pass	-1600
ash	-1601
pend	-1602
क्रिया	-1603
भव	-1604
▁मार्ग	-1605
▁ज्ञ	-1606
▁place	-1607
▁diffe	-1608
ror	-1609
ctions	-1610
▁hum	-1611
▁पुर	-1612
काल	-1613
▁महत्व	-1614
▁exp	-1615
ides	-1616
िट	-1617
▁तै	-1618
ari	-1619
▁स्ट	-1620
iness	-1621
त्या	-1622
arch	-1623
▁10	-1624
श्व	-1625
▁account	-1626
▁सकती	-1627
▁lit	-1628
▁बैं	-1629
▁लो	-1630
ouse	-1631
alth	-1632
▁long	-1633
▁car	-1634
त्रा	-1635
▁Am	-1636
rest	-1637
▁When	-1638
▁9	-1639
▁दौर	-1640
ivers	-1641
धी	-1642
▁संप	-1643
ene	-1644
▁equ	-1645
▁मंत्र	-1646
डर	-1647
▁डाल	-1648
▁शिक्षा	-1649
▁करती	-1650
▁give	-1651
▁:	-1652
▁wom	-1653
▁अर्	-1654
▁पहुँ	-1655
▁power	-1656
▁व्याप	-1657
tle	-1658
ix	-1659
यार	-1660
▁imp	-1661
▁उपलब्ध	-1662
ten	-1663
▁av	-1664
▁sm	-1665
ुक	-1666
ral	-1667
ries	-1668
▁मू	-1669
▁Al	-1670
ट्ट	-1671
▁वृ	-1672
कृति	-1673
▁दूसरे	-1674
▁cap	-1675
▁मद	-1676
▁स्थिति	-1677
▁डा	-1678
▁cle	-1679
भिन्न	-1680
ुष	-1681
ES	-1682
▁cond	-1683
▁min	-1684
▁लोक	-1685
▁योग	-1686
▁इसलिए	-1687
▁gener	-1688
▁कें	-1689
▁Day	-1690
ंति	-1691
▁जर	-1692
ंजी	-1693
ified	-1694
▁संग	-1695
arn	-1696
▁includ	-1697
▁बच्च	-1698
▁पुन	-1699
▁सहायता	-1700
▁जिन्ह	-1701
ोट	-1702
▁sure	-1703
युक्त	-1704
▁छोड़	-1705
नेवाल	-1706
ata	-1707
▁inter	-1708
▁प्रभाव	-1709
▁prom	-1710
▁उच्च	-1711
ेद	-1712
▁होना	-1713
▁water	-1714
ंश	-1715
tt	-1716
तान	-1717
▁बड़ी	-1718
▁हाथ	-1719
uthor	-1720
ork	-1721
▁No	-1722
▁महा	-1723
ष्टि	-1724
ug	-1725
selves	-1726
▁nor	-1727
▁gl	-1728
▁जु	-1729
▁now	-1730
▁वित	-1731
▁away	-1732
▁उद्	-1733
▁उनमें	-1734
न्द्र	-1735
ional	-1736
इन	-1737
▁अर्थ	-1738
▁Hind	-1739
▁let	-1740
ेट	-1741
000	-1742
ars	-1743
▁होगी	-1744
▁हूं	-1745
क्ट	-1746
▁found	-1747
ताब	-1748
एस	-1749
roup	-1750
▁कभी	-1751
स्तु	-1752
वाह	-1753
ared	-1754
ोप	-1755
▁मेरी	-1756
oun	-1757
ale	-1758
यं	-1759
ined	-1760
▁अधीन	-1761
▁शामिल	-1762
▁कई	-1763
uk	-1764
▁men	-1765
▁प्रण	-1766
▁सके	-1767
▁विभिन्न	-1768
▁स्वा	-1769
▁%	-1770
▁number	-1771
ern	-1772
▁lar	-1773
ety	-1774
▁आया	-1775
ूट	-1776
ana	-1777
र्ट	-1778
▁state	-1779
▁अति	-1780
्यालय	-1781
▁want	-1782
▁fore	-1783
."	-1784
ोह	-1785
conom	-1786
▁बल्कि	-1787
ship	-1788
day	-1789
ंट	-1790
lease	-1791
▁बता	-1792
▁अंतर	-1793
स्थान	-1794
▁इससे	-1795
▁दौरान	-1796
tc	-1797
ists	-1798
▁Q	-1799
▁लिये	-1800
▁हाल	-1801
▁conf	-1802
हत	-1803
▁lo	-1804
▁lead	-1805
▁कहते	-1806
▁सदस	-1807
▁करके	-1808
▁fin	-1809
▁heav	-1810
▁Our	-1811
तम	-1812
▁किस	-1813
angu	-1814
त्मक	-1815
ict	-1816
the	-1817
▁conc	-1818
▁आगे	-1819
▁inf	-1820
▁during	-1821
less	-1822
▁सुर	-1823
▁यहाँ	-1824
▁Cent	-1825
▁ब्र	-1826
▁अनुस	-1827
ters	-1828
▁fam	-1829
▁15	-1830
ण्ड	-1831
रूप	-1832
मुख	-1833
▁same	-1834
ेम	-1835
र्इ	-1836
ody	-1837
▁main	-1838
▁अनुसार	-1839
ys	-1840
▁section	-1841
▁पता	-1842
कट	-1843
▁भाषा	-1844
▁199	-1845
▁दूर	-1846
ledge	-1847
्ला	-1848
▁while	-1849
▁बैठ	-1850
iod	-1851
ruct	-1852
▁heart	-1853
imes	-1854
▁कर्म	-1855
▁cur	-1856
▁det	-1857
▁spec	-1858
▁अवसर	-1859
▁whom	-1860
▁occ	-1861
ology	-1862
सल	-1863
ron	-1864
▁rece	-1865
▁जहां	-1866
▁इसी	-1867
▁each	-1868
▁भूम	-1869
▁अंग	-1870
▁present	-1871
▁विषय	-1872
▁here	-1873
द्धि	-1874
ired	-1875
▁अभ	-1876
ेह	-1877
▁होंगे	-1878
▁सूची	-1879
▁शी	-1880
▁case	-1881
▁development	-1882
ैन	-1883
ered	-1884
▁तरफ	-1885
▁ग़	-1886
ासन	-1887
ोजन	-1888
स्व	-1889
▁उनको	-1890
lim	-1891
▁land	-1892
▁मुख्य	-1893
▁ask	-1894
▁यही	-1895
▁पड़	-1896
▁पि	-1897
दन	-1898
फी	-1899
▁अग	-1900
▁est	-1901
शि	-1902
▁याद	-1903
▁sin	-1904
ग्रह	-1905
:%	-1906
्म	-1907
aken	-1908
▁आई	-1909
▁art	-1910
▁परिवर्	-1911
▁लाभ	-1912
ption	-1913
▁सामने	-1914
▁process	-1915
▁इसका	-1916
▁pay	-1917
har	-1918
ya	-1919
यर	-1920
▁12	-1921
जे	-1922
▁cor	-1923
▁शै	-1924
▁organ	-1925
▁जिसके	-1926
ality	-1927
मीन	-1928
▁def	-1929
▁ser	-1930
ains	-1931
▁resp	-1932
▁book	-1933
▁called	-1934
▁स्वी	-1935
▁१	-1936
▁–	-1937
▁stud	-1938
▁cour	-1939
▁सामान्य	-1940
▁etc	-1941
▁adv	-1942
▁20	-1943
▁उठा	-1944
▁order	-1945
▁both	-1946
▁प्रक्रिया	-1947
और	-1948
EN	-1949
▁पूरा	-1950
ित्व	-1951
▁another	-1952
▁loc	-1953
su	-1954
▁अनुम	-1955
▁स्पष्ट	-1956
▁पूर्ण	-1957
▁करेगा	-1958
▁dem	-1959
▁देते	-1960
▁open	-1961
▁things	-1962
लो	-1963
▁law	-1964
▁word	-1965
▁Te	-1966
कर्	-1967
▁Res	-1968
सम	-1969
▁चि	-1970
▁comple	-1971
ics	-1972
▁शा	-1973
▁उसमें	-1974
ize	-1975
ience	-1976
▁truth	-1977
▁संबंधित	-1978
▁तैयार	-1979
amp	-1980
ियो	-1981
▁(2	-1982
▁Then	-1983
▁ऋ	-1984
man	-1985
▁संख्या	-1986
▁return	-1987
▁पद	-1988
wards	-1989
▁prev	-1990
▁उत्तर	-1991
प्त	-1992
▁Ar	-1993
▁fac	-1994
▁start	-1995
▁list	-1996
त्ति	-1997
▁sur	-1998
▁चुन	-1999
▁संस्	-2000
▁घर	-2001
▁educ	-2002
▁file	-2003
▁बाहर	-2004
▁जाएँ	-2005
▁बदल	-2006
▁अलग	-2007
▁जल	-2008
▁वास्तव	-2009
ंतु	-2010
▁aff	-2011
▁mark	-2012
▁term	-2013
▁bus	-2014
▁11	-2015
▁निर्माण	-2016
ained	-2017
ov	-2018
▁ce	-2019
▁public	-2020
lish	-2021
▁period	-2022
bers	-2023
▁dev	-2024
▁indust	-2025
जार	-2026
▁लगे	-2027
▁चाहते	-2028
▁different	-2029
▁Do	-2030
▁बढ़ा	-2031
▁find	-2032
▁play	-2033
▁beh	-2034
ज्य	-2035
▁partic	-2036
▁indeed	-2037
▁प्रत्येक	-2038
सि	-2039
हरा	-2040
▁Par	-2041
▁ref	-2042
टना	-2043
▁best	-2044
▁भेज	-2045
लेख	-2046
▁Mus	-2047
तंत्र	-2048
्श	-2049
▁कान	-2050
▁आपको	-2051
▁पृ	-2052
▁wind	-2053
▁कौ	-2054
▁three	-2055
▁certain	-2056
▁without	-2057
ूँ	-2058
▁प्रौ	-2059
▁fil	-2060
▁Tr	-2061
▁came	-2062
rop	-2063
िये	-2064
▁Mess	-2065
▁commun	-2066
ंचा	-2067
▁पत्र	-2068
ीक	-2069
▁त्र	-2070
▁नई	-2071
वास	-2072
हास	-2073
▁सुन	-2074
erg	-2075
▁fact	-2076
▁National	-2077
▁econom	-2078
▁sou	-2079
▁रंग	-2080
गम	-2081
▁knowledge	-2082
्यादा	-2083
▁show	-2084
▁bro	-2085
▁आद	-2086
▁पढ़	-2087
▁fa	-2088
▁fear	-2089
▁sl	-2090
▁भर	-2091
▁अध्य	-2092
▁बनाने	-2093
ived	-2094
▁तीन	-2095
पि	-2096
▁अने	-2097
संद	-2098
▁शब्द	-2099
र्या	-2100
▁poss	-2101
▁techn	-2102
▁{	-2103
▁संर	-2104
▁बड़े	-2105
▁अच्छा	-2106
ालन	-2107
▁ty	-2108
ines	-2109
▁पुस्त	-2110
▁जारी	-2111
▁relig	-2112
stitution	-2113
आई	-2114
▁read	-2115
▁मौज	-2116
▁ext	-2117
दर्श	-2118
▁गुण	-2119
ोल्	-2120
ध्यम	-2121
छे	-2122
▁OF	-2123
▁कार्यक्रम	-2124
▁प्रार	-2125
▁नियम	-2126
ैर	-2127
▁किताब	-2128
▁पूरी	-2129
▁means	-2130
mit	-2131
▁शुरू	-2132
इट	-2133
▁support	-2134
ai	-2135
▁शि	-2136
▁interest	-2137
▁author	-2138
esh	-2139
▁प्रकाश	-2140
▁स्वयं	-2141
▁avail	-2142
aid	-2143
▁look	-2144
▁अत्य	-2145
▁तुम्हारी	-2146
ention	-2147
▁आदि	-2148
▁progr	-2149
ament	-2150
▁much	-2151
▁शक्ति	-2152
▁high	-2153
▁information	-2154
बार	-2155
▁नीति	-2156
▁आपके	-2157
ploy	-2158
▁grow	-2159
▁except	-2160
मंत्र	-2161
▁Mah	-2162
ither	-2163
▁Shri	-2164
ner	-2165
▁फै	-2166
▁gra	-2167
▁vis	-2168
▁langu	-2169
▁प्रयास	-2170
here	-2171
ield	-2172
stand	-2173
▁tem	-2174
ination	-2175
▁प्रौद्योगिक	-2176
▁रखा	-2177
ough	-2178
हम	-2179
▁stand	-2180
▁pun	-2181
▁respect	-2182
▁रे	-2183
▁'%	-2184
▁संस्था	-2185
iving	-2186
ालय	-2187
दाय	-2188
▁पानी	-2189
▁चार	-2190
▁कॉ	-2191
▁direct	-2192
धे	-2193
ंब	-2194
टक	-2195
▁ऊपर	-2196
ज़ाब	-2197
▁निश्चय	-2198
riend	-2199
ually	-2200
▁गये	-2201
crib	-2202
ियोजना	-2203
टन	-2204
▁incre	-2205
▁निर्धारित	-2206
पत्र	-2207
.201	-2208
▁वस्तु	-2209
▁#	-2210
▁med	-2211
विद	-2212
▁contin	-2213
▁मदद	-2214
▁full	-2215
शत	-2216
▁खुदा	-2217
म्प	-2218
▁ते	-2219
▁सौ	-2220
▁disbelie	-2221
ocial	-2222
ccess	-2223
▁ज्ञान	-2224
ized	-2225
▁कल	-2226
भार	-2227
▁परिण	-2228
हन	-2229
▁अनेक	-2230
▁government	-2231
▁परियोजना	-2232
▁मी	-2233
▁ली	-2234
▁तू	-2235
रती	-2236
स्थित	-2237
oh	-2238
rence	-2239
AR	-2240
▁हेतु	-2241
▁मार	-2242
▁Minister	-2243
क्षित	-2244
ूं	-2245
▁चाहता	-2246
▁सिवा	-2247
अप	-2248
▁जग	-2249
ms	-2250
▁var	-2251
▁गिर	-2252
ूरी	-2253
▁दुनिया	-2254
्रो	-2255
cl	-2256
▁प्रधान	-2257
ेशक	-2258
ffic	-2259
▁Say	-2260
▁वी	-2261
ify	-2262
▁गति	-2263
▁करा	-2264
▁धर्म	-2265
▁human	-2266
▁न्याया	-2267
▁group	-2268
▁चला	-2269
▁रुप	-2270
▁women	-2271
▁बनाया	-2272
▁गयी	-2273
▁संघ	-2274
ware	-2275
बन्	-2276
▁oper	-2277
▁think	-2278
ret	-2279
▁Or	-2280
error	-2281
▁गो	-2282
gg	-2283
▁sk	-2284
▁महत्वपूर्ण	-2285
ER	-2286
ृत	-2287
▁small	-2288
बाद	-2289
▁बैंक	-2290
▁उद्योग	-2291
ins	-2292
▁meet	-2293
▁unto	-2294
▁project	-2295
▁स्तर	-2296
शील	-2297
▁clear	-2298
ool	-2299
▁Man	-2300
▁करनेवाल	-2301
रु	-2302
▁बन्द	-2303
र्ड	-2304
▁आए	-2305
ros	-2306
olution	-2307
ND	-2308
eds	-2309
▁That	-2310
▁prof	-2311
▁created	-2312
षि	-2313
▁वित्त	-2314
▁तुम्हारा	-2315
▁che	-2316
▁बेह	-2317
▁अन्त	-2318
पन	-2319
▁जोड़	-2320
▁exam	-2321
▁श्रे	-2322
▁sim	-2323
▁स्क	-2324
▁cannot	-2325
mb	-2326
▁जिसने	-2327
▁ver	-2328
ried	-2329
▁डर	-2330
▁last	-2331
▁प्रो	-2332
thing	-2333
▁डे	-2334
▁My	-2335
▁संस्थान	-2336
▁ध्यान	-2337
▁effect	-2338
▁परिणाम	-2339
▁appe	-2340
▁ज़र	-2341
▁som	-2342
▁भवन	-2343
▁proper	-2344
▁करेंगे	-2345
▁प्रमाण	-2346
▁मत	-2347
▁happ	-2348
▁Le	-2349
▁विदेश	-2350
AT	-2351
नीय	-2352
▁important	-2353
▁rest	-2354
ency	-2355
▁यहां	-2356
▁message	-2357
मित	-2358
ctor	-2359
inal	-2360
▁देना	-2361
enef	-2362
र्थिक	-2363
▁become	-2364
lected	-2365
older	-2366
▁cult	-2367
▁मैंने	-2368
▁बेशक	-2369
rap	-2370
▁bring	-2371
▁ठीक	-2372
▁div	-2373
▁What	-2374
▁बिना	-2375
asht	-2376
▁New	-2377
▁देखा	-2378
▁समूह	-2379
तिहास	-2380
दिष्ट	-2381
▁How	-2382
लन	-2383
▁प्रबंध	-2384
▁नीचे	-2385
▁व्यक्त	-2386
▁प्रतिशत	-2387
stitut	-2388
ोन	-2389
निर्	-2390
▁ca	-2391
▁Book	-2392
ल्क	-2393
▁पो	-2394
▁जमा	-2395
ज़ी	-2396
▁Be	-2397
▁अंतर्	-2398
ways	-2399
▁क्षेत्रों	-2400
▁आवश्यकता	-2401
▁समाज	-2402
⁄4	-2403
▁company	-2404
▁प्रमुख	-2405
hip	-2406
▁(1)	-2407
▁प्रौद्योगिकी	-2408
▁शरी	-2409
द्व	-2410
▁business	-2411
ोल्डर	-2412
tend	-2413
44	-2414
▁amount	-2415
ंख	-2416
▁लेख	-2417
▁सफल	-2418
RB	-2419
▁प्रय	-2420
▁today	-2421
▁taken	-2422
▁बर	-2423
▁surely	-2424
erc	-2425
▁ज्यादा	-2426
lf	-2427
ider	-2428
ID	-2429
▁known	-2430
श्	-2431
▁never	-2432
ember	-2433
por	-2434
ामी	-2435
▁जिसका	-2436
▁लेकर	-2437
▁These	-2438
▁झु	-2439
?"	-2440
▁हिस्	-2441
ense	-2442
वादी	-2443
▁estab	-2444
▁might	-2445
▁head	-2446
▁पीछे	-2447
▁income	-2448
▁pat	-2449
जिक	-2450
इस	-2451
▁wrong	-2452
गू	-2453
▁माध्यम	-2454
▁किन्तु	-2455
▁pri	-2456
▁पाठ	-2457
▁punish	-2458
विधा	-2459
ases	-2460
स्या	-2461
▁जबकि	-2462
▁Pl	-2463
क्स	-2464
ining	-2465
▁ज़मीन	-2466
az	-2467
▁मगर	-2468
भग	-2469
gress	-2470
akes	-2471
ks	-2472
bs	-2473
▁सीमा	-2474
▁सार	-2475
min	-2476
den	-2477
▁विश्वास	-2478
▁children	-2479
ख्त	-2480
म्बर	-2481
▁समर्थ	-2482
icy	-2483
ode	-2484
▁धरती	-2485
▁month	-2486
धारा	-2487
▁समान	-2488
istr	-2489
ls	-2490
▁ele	-2491
ote	-2492
▁लौ	-2493
स्प	-2494
work	-2495
▁दिए	-2496
▁मज	-2497
ल्म	-2498
दारी	-2499
▁कंपनी	-2500
▁various	-2501
▁days	-2502
वृ	-2503
▁ती	-2504
▁applic	-2505
▁विस्त	-2506
▁Me	-2507
▁अतः	-2508
▁होकर	-2509
▁खंड	-2510
▁केंद्र	-2511
▁within	-2512
▁अमे	-2513
▁आर्थिक	-2514
शो	-2515
▁dest	-2516
▁Ram	-2517
▁fun	-2518
▁Z	-2519
ल्ली	-2520
lam	-2521
▁पिछ	-2522
▁put	-2523
▁sch	-2524
▁विंड	-2525
▁bank	-2526
र्ति	-2527
▁forg	-2528
▁कठ	-2529
▁accept	-2530
▁Muslim	-2531
ंह	-2532
put	-2533
▁कृषि	-2534
ably	-2535
▁activ	-2536
▁old	-2537
▁मूल्य	-2538
▁four	-2539
▁PR	-2540
▁themselves	-2541
reed	-2542
्यता	-2543
▁196	-2544
▁view	-2545
▁better	-2546
स्क	-2547
▁बरा	-2548
▁अम	-2549
▁उद्देश	-2550
▁अज़ाब	-2551
▁इसकी	-2552
▁times	-2553
▁आदेश	-2554
▁भे	-2555
▁den	-2556
▁चाहे	-2557
▁faith	-2558
▁appro	-2559
ियन	-2560
-1	-2561
▁खोल	-2562
▁sit	-2563
ternal	-2564
▁window	-2565
▁कला	-2566
▁लड़	-2567
▁proble	-2568
▁mind	-2569
▁evil	-2570
to	-2571
▁friend	-2572
▁allow	-2573
▁सुधार	-2574
▁done	-2575
उस	-2576
▁इनकार	-2577
▁वाय	-2578
▁success	-2579
▁large	-2580
▁transl	-2581
ON	-2582
गें	-2583
▁रखते	-2584
▁रोग	-2585
▁ide	-2586
▁mar	-2587
▁जनता	-2588
मता	-2589
▁Ab	-2590
▁तुमसे	-2591
▁social	-2592
ething	-2593
▁body	-2594
▁जानकारी	-2595
▁भाव	-2596
▁16	-2597
ateg	-2598
▁left	-2599
▁निम्	-2600
▁bas	-2601
▁Raj	-2602
▁श्र	-2603
▁विद्य	-2604
▁move	-2605
▁real	-2606
▁उल्	-2607
▁लगभग	-2608
विध	-2609
rought	-2610
▁पर्या	-2611
▁par	-2612
▁level	-2613
▁बदला	-2614
▁आने	-2615
ey	-2616
avan	-2617
▁स्वीकार	-2618
▁जैसा	-2619
▁छा	-2620
ानों	-2621
▁अभी	-2622
▁employ	-2623
▁अवधि	-2624
▁सारे	-2625
▁हिन्द	-2626
▁25	-2627
▁ऋण	-2628
▁काफी	-2629
rol	-2630
▁going	-2631
lished	-2632
ठन	-2633
▁others	-2634
▁address	-2635
बद्ध	-2636
्ले	-2637
▁Eng	-2638
▁रोक	-2639
▁चौ	-2640
ेशन	-2641
▁समस्या	-2642
):	-2643
oin	-2644
▁निश	-2645
▁keep	-2646
▁नियंत्र	-2647
AN	-2648
र्फ	-2649
▁लागू	-2650
ery	-2651
ttp	-2652
line	-2653
ॉल	-2654
▁मेरा	-2655
▁निकाल	-2656
▁साल	-2657
▁http	-2658
▁education	-2659
▁Gu	-2660
▁जानता	-2661
ically	-2662
▁गण	-2663
▁जगह	-2664
ues	-2665
▁सहयोग	-2666
ium	-2667
med	-2668
▁मिला	-2669
र्च	-2670
ator	-2671
▁वहां	-2672
▁मंद	-2673
माजिक	-2674
▁पक्ष	-2675
▁तरी	-2676
▁गुना	-2677
▁सुविधा	-2678
▁अच्छे	-2679
ulation	-2680
▁leg	-2681
ization	-2682
▁विश्वविद	-2683
▁bo	-2684
oint	-2685
par	-2686
▁195	-2687
▁मानव	-2688
▁मध्य	-2689
▁वक्त	-2690
▁too	-2691
ूब	-2692
▁At	-2693
▁विभाग	-2694
उन	-2695
ram	-2696
▁क़ौ	-2697
▁धन	-2698
▁खोज	-2699
▁exper	-2700
णा	-2701
▁परिवर्तन	-2702
आर	-2703
ferred	-2704
ran	-2705
▁विज्ञान	-2706
▁लक्ष	-2707
▁मामले	-2708
▁build	-2709
▁x	-2710
▁अच्छी	-2711
▁198	-2712
jee	-2713
▁कोश	-2714
तें	-2715
▁free	-2716
alf	-2717
▁क्रिया	-2718
▁polit	-2719
▁फ़ोल्डर	-2720
ury	-2721
▁soci	-2722
▁सामाजिक	-2723
atic	-2724
▁benef	-2725
▁light	-2726
पुर	-2727
//	-2728
▁यू	-2729
▁tre	-2730
चान	-2731
▁निकल	-2732
▁pop	-2733
iron	-2734
▁दें	-2735
▁जाएगी	-2736
▁प्रणाली	-2737
▁व्यापार	-2738
ENT	-2739
▁स्थापित	-2740
eric	-2741
हरी	-2742
▁invest	-2743
▁समाप्त	-2744
▁chang	-2745
▁आम	-2746
▁1.	-2747
▁due	-2748
▁towards	-2749
rah	-2750
▁अतिरिक	-2751
डियो	-2752
itions	-2753
ged	-2754
▁dra	-2755
▁Im	-2756
▁कुल	-2757
ृत्य	-2758
▁less	-2759
▁इं	-2760
▁पं	-2761
▁चयन	-2762
▁result	-2763
▁war	-2764
▁available	-2765
▁sche	-2766
land	-2767
▁सभा	-2768
▁निम्न	-2769
cri	-2770
▁आवश्यक	-2771
▁kind	-2772
na	-2773
र्द	-2774
पाल	-2775
▁दक्ष	-2776
▁Who	-2777
▁पहुंच	-2778
▁दिल	-2779
▁फर	-2780
▁dep	-2781
स्तुत	-2782
://	-2783
▁offic	-2784
मंत्री	-2785
▁भु	-2786
▁One	-2787
▁कवि	-2788
3⁄4	-2789
¤3⁄4	-2790
▁jud	-2791
enger	-2792
▁घो	-2793
▁quest	-2794
▁आध	-2795
द्द	-2796
▁आग	-2797
ief	-2798
▁hist	-2799
alk	-2800
▁सिद्ध	-2801
irc	-2802
▁13	-2803
ailed	-2804
▁वर्ग	-2805
ording	-2806
▁rev	-2807
▁यक़	-2808
inc	-2809
▁trad	-2810
▁जीव	-2811
मार	-2812
▁कहीं	-2813
▁Central	-2814
▁वेब	-2815
▁health	-2816
ason	-2817
दर्शन	-2818
▁जाओ	-2819
▁पूछ	-2820
्‍	-2821
.0	-2822
तनी	-2823
ird	-2824
▁language	-2825
ंव	-2826
ज़र	-2827
ng	-2828
▁सुरक्षा	-2829
▁टे	-2830
▁heavens	-2831
▁Del	-2832
▁issu	-2833
▁उसको	-2834
▁जानते	-2835
▁बराबर	-2836
जि	-2837
▁Ass	-2838
न्म	-2839
चन	-2840
लत	-2841
▁विवरण	-2842
राम	-2843
तियों	-2844
iversity	-2845
▁प्रती	-2846
चि	-2847
दम	-2848
स्तान	-2849
▁कोर्इ	-2850
ering	-2851
▁understand	-2852
▁prote	-2853
हरण	-2854
ान्त	-2855
▁brought	-2856
ala	-2857
डा	-2858
IN	-2859
▁''	-2860
जों	-2861
▁mo	-2862
▁value	-2863
▁चे	-2864
ंदर	-2865
▁मर	-2866
▁जिससे	-2867
कु	-2868
▁exist	-2869
▁स्थित	-2870
▁रहने	-2871
▁टी	-2872
र्स	-2873
पना	-2874
िश्त	-2875
▁national	-2876
uss	-2877
ंधान	-2878
▁14	-2879
एम	-2880
ross	-2881
nic	-2882
▁निर्ण	-2883
▁#44	-2884
▁#44;	-2885
धित	-2886
ances	-2887
▁command	-2888
▁str	-2889
▁अतिरिक्त	-2890
▁डी	-2891
str	-2892
ukher	-2893
▁ri	-2894
▁She	-2895
बल	-2896
▁पे	-2897
▁punishment	-2898
▁उदा	-2899
▁194	-2900
▁cause	-2901
▁family	-2902
▁Dep	-2903
▁महिला	-2904
▁197	-2905
ajor	-2906
rie	-2907
ukherjee	-2908
tal	-2909
▁Mu	-2910
फा	-2911
▁रहते	-2912
▁class	-2913
urity	-2914
▁देशों	-2915
▁poet	-2916
▁नया	-2917
▁क़ौम	-2918
बू	-2919
▁अल	-2920
▁विन	-2921
▁tas	-2922
▁send	-2923
iful	-2924
▁आकार	-2925
ीकरण	-2926
जर	-2927
▁नए	-2928
▁change	-2929
भर	-2930
▁चुका	-2931
▁bre	-2932
▁सन्	-2933
▁चुके	-2934
ternational	-2935
▁सच्च	-2936
▁const	-2937
ructure	-2938
▁अंतर्गत	-2939
▁तुमने	-2940
मि	-2941
ेंट	-2942
▁lim	-2943
▁food	-2944
कृतिक	-2945
▁कहने	-2946
▁Sub	-2947
▁लेने	-2948
ification	-2949
▁death	-2950
ately	-2951
▁kg	-2952
▁कर्	-2953
▁संवि	-2954
cut	-2955
opt	-2956
डे	-2957
▁run	-2958
पन्न	-2959
▁पड़े	-2960
▁राम	-2961
▁met	-2962
वाई	-2963
क्ता	-2964
ceed	-2965
ource	-2966
▁सही	-2967
▁हिंद	-2968
▁something	-2969
▁उत्पादन	-2970
ising	-2971
¥	-2972
▁संस	-2973
▁associ	-2974
ष्ट्रीय	-2975
▁Islam	-2976
▁लाए	-2977
▁रखने	-2978
ेशा	-2979
▁Bhavan	-2980
aim	-2981
▁जाये	-2982
▁plan	-2983
▁अनुसंधान	-2984
▁मंदिर	-2985
isions	-2986
▁आकाश	-2987
▁market	-2988
▁special	-2989
प्	-2990
hing	-2991
▁house	-2992
वेदन	-2993
▁non	-2994
▁ज़ि	-2995
▁एन	-2996
anab	-2997
▁service	-2998
▁ru	-2999
▁Add	-3000
ocu	-3001
▁तु	-3002
▁यातना	-3003
▁अप्र	-3004
▁खेल	-3005
▁त्रुट	-3006
ready	-3007
used	-3008
rial	-3009
rict	-3010
▁इन्	-3011
ट्टी	-3012
तार	-3013
▁नही	-3014
बो	-3015
सित	-3016
िष्ट	-3017
ग्री	-3018
रोध	-3019
तमान	-3020
पूर्व	-3021
▁17	-3022
▁उठ	-3023
▁बुरा	-3024
section	-3025
▁vill	-3026
ंधी	-3027
▁net	-3028
▁।	-3029
▁उद्देश्य	-3030
ष्ण	-3031
▁self	-3032
▁Rs	-3033
uty	-3034
▁program	-3035
▁महान	-3036
▁राशि	-3037
▁supp	-3038
▁व्यवस्था	-3039
▁यात्रा	-3040
ential	-3041
▁mer	-3042
▁ey	-3043
ricult	-3044
▁सां	-3045
▁माँ	-3046
▁Rasht	-3047
क्षम	-3048
▁hard	-3049
▁क्षमता	-3050
ME	-3051
▁Can	-3052
▁वालों	-3053
irit	-3054
▁निवेश	-3055
▁बहु	-3056
▁30	-3057
ivid	-3058
▁far	-3059
nect	-3060
▁subject	-3061
▁father	-3062
▁भू	-3063
▁object	-3064
▁प्रदेश	-3065
▁पृष्ठ	-3066
▁पत्	-3067
▁field	-3068
▁निस्	-3069
▁cal	-3070
het	-3071
orn	-3072
▁Dis	-3073
▁matter	-3074
ait	-3075
▁reve	-3076
हित्य	-3077
▁area	-3078
agement	-3079
▁comput	-3080
▁Sec	-3081
iqu	-3082
▁provided	-3083
itte	-3084
▁बचा	-3085
▁विधि	-3086
▁बाल	-3087
▁data	-3088
▁product	-3089
ठला	-3090
स्थ्य	-3091
▁near	-3092
▁परी	-3093
▁date	-3094
urther	-3095
▁उपधारा	-3096
▁जिन्हें	-3097
com	-3098
ured	-3099
कर्ता	-3100
▁सदस्य	-3101
▁Americ	-3102
▁एस	-3103
▁ple	-3104
▁love	-3105
▁निष्	-3106
▁परन्तु	-3107
▁op	-3108
▁अधिकारी	-3109
▁संपर्क	-3110
han	-3111
▁प्रारंभ	-3112
▁Ag	-3113
rapati	-3114
▁charact	-3115
▁already	-3116
io	-3117
▁रि	-3118
ference	-3119
▁sw	-3120
▁मनुष	-3121
▁eng	-3122
▁true	-3123
ूरत	-3124
▁समु	-3125
reen	-3126
▁regard	-3127
▁whole	-3128
ali	-3129
▁राह	-3130
reng	-3131
▁वर्तमान	-3132
ability	-3133
▁मूसा	-3134
▁वर्षों	-3135
gether	-3136
▁together	-3137
क्म	-3138
▁hig	-3139
▁night	-3140
ोस	-3141
▁members	-3142
▁बनाए	-3143
▁Sing	-3144
▁second	-3145
ोर्ट	-3146
▁ann	-3147
ma	-3148
त्मा	-3149
▁विशिष्ट	-3150
▁rese	-3151
oss	-3152
षित	-3153
▁युद्ध	-3154
▁few	-3155
श्र	-3156
raph	-3157
▁वाप	-3158
▁इतिहास	-3159
▁सिर्फ	-3160
▁cr	-3161
oney	-3162
▁fund	-3163
▁Gand	-3164
ज्	-3165
▁gave	-3166
▁common	-3167
▁परिवार	-3168
▁capital	-3169
cing	-3170
ख़िर	-3171
▁स्वतंत्र	-3172
▁Us	-3173
aring	-3174
▁worship	-3175
▁Cont	-3176
▁perform	-3177
▁services	-3178
▁थीं	-3179
▁सत्य	-3180
▁आरंभ	-3181
▁signs	-3182
▁countries	-3183
IT	-3184
▁Indeed	-3185
यान	-3186
▁निर्देश	-3187
▁Your	-3188
▁अर	-3189
▁कौन	-3190
दर	-3191
▁following	-3192
iding	-3193
▁del	-3194
▁Rashtrapati	-3195
▁care	-3196
धारण	-3197
▁Spe	-3198
▁प्रस्तुत	-3199
▁वर्ण	-3200
▁Delhi	-3201
ancial	-3202
▁दूसरी	-3203
▁त्रुटि	-3204
▁तुमको	-3205
▁न्याय	-3206
▁expl	-3207
ently	-3208
¤	-3209
ope	-3210
OR	-3211
¤°	-3212
▁न्यायालय	-3213
▁सका	-3214
▁Brit	-3215
▁above	-3216
▁liter	-3217
▁tax	-3218
▁झुठला	-3219
▁god	-3220
▁वहाँ	-3221
▁साहित्य	-3222
ांत	-3223
▁hold	-3224
थम	-3225
▁२	-3226
▁Pre	-3227
eness	-3228
▁Those	-3229
मिल	-3230
ners	-3231
▁पेश	-3232
▁pray	-3233
come	-3234
▁little	-3235
जो	-3236
▁pract	-3237
▁provide	-3238
गल	-3239
ogn	-3240
▁हमारा	-3241
▁दृष्टि	-3242
गु	-3243
भू	-3244
▁Rep	-3245
▁dou	-3246
▁प्रशिक्ष	-3247
▁based	-3248
liament	-3249
▁streng	-3250
▁स्वास्थ्य	-3251
itor	-3252
▁areas	-3253
be	-3254
रिका	-3255
▁दिल्ली	-3256
ession	-3257
▁himself	-3258
▁चा	-3259
▁major	-3260
▁particular	-3261
eous	-3262
ians	-3263
▁nation	-3264
▁path	-3265
सलमान	-3266
▁age	-3267
▁हुक्म	-3268
▁action	-3269
▁respons	-3270
जित	-3271
itness	-3272
▁आन	-3273
▁kgm	-3274
ems	-3275
▁शहर	-3276
▁economic	-3277
तक	-3278
▁cost	-3279
▁शरीर	-3280
जरा	-3281
val	-3282
ying	-3283
▁अपे	-3284
▁asse	-3285
▁शे	-3286
▁प्रधानमंत्री	-3287
▁test	-3288
००	-3289
ानीय	-3290
▁देगा	-3291
aining	-3292
ilities	-3293
AL	-3294
iver	-3295
▁थो	-3296
▁लाख	-3297
▁देखते	-3298
HE	-3299
▁type	-3300
▁making	-3301
▁plac	-3302
▁thought	-3303
▁रात	-3304
▁words	-3305
artment	-3306
isation	-3307
▁वास्ते	-3308
htm	-3309
▁belong	-3310
▁दक्षि	-3311
▁बच्चों	-3312
ividual	-3313
▁जिनके	-3314
▁consider	-3315
▁policy	-3316
कम	-3317
▁बेहतर	-3318
▁चित्र	-3319
▁शिक	-3320
▁विश्वविद्यालय	-3321
▁eas	-3322
▁तौर	-3323
ger	-3324
▁hearts	-3325
ोजित	-3326
▁beg	-3327
adesh	-3328
▁init	-3329
▁श्रेणी	-3330
▁आसमान	-3331
खित	-3332
नाथ	-3333
झा	-3334
▁निर	-3335
▁कैसे	-3336
लू	-3337
▁Acc	-3338
▁until	-3339
▁अंग्रे	-3340
ंतिम	-3341
ilit	-3342
▁Gener	-3343
▁having	-3344
रि	-3345
oses	-3346
ling	-3347
निश्च	-3348
▁prob	-3349
▁able	-3350
▁el	-3351
बत	-3352
▁घटना	-3353
viron	-3354
▁Commission	-3355
ges	-3356
▁report	-3357
▁अमेरिका	-3358
▁still	-3359
aled	-3360
▁current	-3361
क्षर	-3362
▁ve	-3363
istry	-3364
्रिय	-3365
▁सम्बन्	-3366
▁एक्स	-3367
▁संसा	-3368
तने	-3369
20	-3370
वाब	-3371
▁भि	-3372
lection	-3373
▁शीर्ष	-3374
▁though	-3375
▁pain	-3376
ैस	-3377
▁हमेशा	-3378
ुओं	-3379
▁निर्णय	-3380
▁seen	-3381
▁ever	-3382
▁विकसित	-3383
chie	-3384
▁around	-3385
ards	-3386
▁sol	-3387
▁जिन्होंने	-3388
oura	-3389
af	-3390
▁सेट	-3391
▁sector	-3392
▁स्थानीय	-3393
लाई	-3394
▁took	-3395
▁society	-3396
idence	-3397
▁sing	-3398
तो	-3399
ories	-3400
▁तहत	-3401
▁उदाहरण	-3402
▁instru	-3403
संदेह	-3404
▁necess	-3405
▁भूमि	-3406
ara	-3407
▁Cour	-3408
▁नौ	-3409
▁Cl	-3410
▁काल	-3411
play	-3412
ड़ों	-3413
▁aut	-3414
▁प्रस्ता	-3415
▁occas	-3416
▁Em	-3417
▁प्रस	-3418
▁States	-3419
▁रू	-3420
ज्ञा	-3421
▁rul	-3422
▁along	-3423
▁farm	-3424
▁2.	-3425
▁बंद	-3426
vironment	-3427
akh	-3428
▁whose	-3429
els	-3430
▁मिले	-3431
▁हाला	-3432
शिया	-3433
ribut	-3434
ises	-3435
▁सर्	-3436
icult	-3437
▁individual	-3438
ww	-3439
▁always	-3440
uct	-3441
▁दया	-3442
ammad	-3443
▁mus	-3444
रीब	-3445
▁अला	-3446
▁हक़	-3447
▁orig	-3448
▁निर्धारण	-3449
▁effort	-3450
▁विदेशी	-3451
शल	-3452
hat	-3453
▁post	-3454
▁express	-3455
▁अनि	-3456
▁spirit	-3457
▁भेजा	-3458
▁repres	-3459
▁बंग	-3460
मन	-3461
▁mult	-3462
hy	-3463
uro	-3464
गति	-3465
▁प्रेम	-3466
▁seek	-3467
ज़िल	-3468
▁दस्ता	-3469
▁believers	-3470
▁अंतिम	-3471
cil	-3472
▁local	-3473
ष्य	-3474
▁बल	-3475
▁मौजूद	-3476
▁meas	-3477
▁vers	-3478
▁nothing	-3479
▁enter	-3480
▁enc	-3481
▁PRES	-3482
▁therefore	-3483
▁चिक	-3484
्याल	-3485
▁अनुभव	-3486
oad	-3487
र्जा	-3488
साय	-3489
IS	-3490
▁ut	-3491
br	-3492
▁उन्	-3493
ंगा	-3494
▁24	-3495
▁fav	-3496
▁पक	-3497
veral	-3498
▁whether	-3499
▁परंतु	-3500
▁छोटे	-3501
▁सार्व	-3502
▁प्रस्ताव	-3503
▁रचना	-3504
▁thing	-3505
▁including	-3506
▁निश्चित	-3507
वासी	-3508
ails	-3509
▁प्रवेश	-3510
▁संच	-3511
च्छा	-3512
▁लगता	-3513
▁clause	-3514
▁folder	-3515
▁भूमिका	-3516
▁deeds	-3517
▁मांग	-3518
▁guid	-3519
▁political	-3520
▁mill	-3521
▁creat	-3522
bo	-3523
▁दिशा	-3524
फिर	-3525
arent	-3526
▁thee	-3527
▁प्राधिक	-3528
▁create	-3529
दू	-3530
▁@	-3531
▁(2)	-3532
▁जहाँ	-3533
▁achie	-3534
राही	-3535
▁किये	-3536
▁Bank	-3537
▁Beng	-3538
▁With	-3539
▁school	-3540
▁witness	-3541
सू	-3542
▁गांधी	-3543
ustom	-3544
▁इस्ला	-3545
▁तत्व	-3546
▁लं	-3547
▁Rem	-3548
ोक्ता	-3549
ोगे	-3550
¥	-3551
▁Show	-3552
▁further	-3553
▁religion	-3554
▁point	-3555
▁बोल	-3556
▁रिप	-3557
▁yet	-3558
ames	-3559
▁अफ	-3560
▁mean	-3561
ील	-3562
▁Reg	-3563
▁पहचान	-3564
▁रहता	-3565
▁young	-3566
ched	-3567
▁port	-3568
▁five	-3569
▁निस्संदेह	-3570
reme	-3571
▁भाई	-3572
▁सक्रिय	-3573
▁अनुमति	-3574
▁वाद	-3575
umb	-3576
्रेस	-3577
यां	-3578
▁पाया	-3579
▁इंड	-3580
▁छवि	-3581
▁संयुक्त	-3582
▁जन्म	-3583
▁Gandhi	-3584
ैंड	-3585
दारों	-3586
ेंस	-3587
▁नव	-3588
▁दुर्	-3589
▁जिसकी	-3590
▁Col	-3591
ream	-3592
▁received	-3593
यात	-3594
eration	-3595
bt	-3596
▁growth	-3597
hammad	-3598
▁इस्त	-3599
▁later	-3600
▁आधारित	-3601
▁घा	-3602
हे	-3603
▁Please	-3604
▁X	-3605
▁विस्तार	-3606
▁माना	-3607
▁जह	-3608
ication	-3609
pportun	-3610
The	-3611
▁Prov	-3612
ier	-3613
▁live	-3614
▁वार	-3615
▁complete	-3616
ats	-3617
▁नागर	-3618
lling	-3619
▁राजनी	-3620
▁पहुँच	-3621
▁Not	-3622
▁दस्तावे	-3623
pose	-3624
▁side	-3625
▁total	-3626
cribed	-3627
▁कृप	-3628
▁जल्	-3629
▁control	-3630
▁नियंत्रण	-3631
▁विकल्प	-3632
▁लक्ष्य	-3633
after	-3634
▁es	-3635
▁संबंधी	-3636
▁equal	-3637
▁निर्दिष्ट	-3638
▁British	-3639
लिखित	-3640
▁यक़ीन	-3641
▁nature	-3642
▁Sy	-3643
ours	-3644
atever	-3645
िकों	-3646
स्म	-3647
एल	-3648
▁became	-3649
▁वित्तीय	-3650
दय	-3651
▁संक	-3652
ann	-3653
▁home	-3654
▁docu	-3655
▁संभव	-3656
▁institut	-3657
erve	-3658
ta	-3659
ार्ड	-3660
rael	-3661
ources	-3662
▁हिस्सा	-3663
opy	-3664
▁बाजार	-3665
▁held	-3666
▁Ph	-3667
▁peace	-3668
▁short	-3669
itional	-3670
▁cred	-3671
▁inde	-3672
▁मित्र	-3673
▁स्थापना	-3674
ead	-3675
▁गर्	-3676
▁since	-3677
वरी	-3678
▁z	-3679
▁hands	-3680
ude	-3681
ittee	-3682
▁impro	-3683
▁मंत्रालय	-3684
for	-3685
▁कमी	-3686
ached	-3687
ribution	-3688
illed	-3689
वीं	-3690
ुनिक	-3691
ministr	-3692
▁जांच	-3693
मू	-3694
▁circ	-3695
जह	-3696
▁diff	-3697
वस्था	-3698
▁50	-3699
▁leave	-3700
्राम	-3701
▁key	-3702
▁opportun	-3703
▁cro	-3704
incip	-3705
▁dr	-3706
outh	-3707
न्ट	-3708
▁(3	-3709
▁English	-3710
▁अग्र	-3711
▁’	-3712
ृत्यु	-3713
▁सहायक	-3714
▁मनुष्य	-3715
▁next	-3716
▁तकनी	-3717
▁Messenger	-3718
ंतर	-3719
atch	-3720
्टी	-3721
gu	-3722
▁mor	-3723
▁सोच	-3724
▁पहुँचा	-3725
▁After	-3726
▁Most	-3727
▁text	-3728
ences	-3729
▁पुकार	-3730
IDENT	-3731
▁record	-3732
▁function	-3733
▁THE	-3734
▁संविधान	-3735
▁बच	-3736
▁डाक	-3737
▁question	-3738
चल	-3739
▁strong	-3740
▁100	-3741
▁probably	-3742
▁गुम	-3743
साइट	-3744
dom	-3745
▁ill	-3746
▁प्रथम	-3747
▁सिंह	-3748
▁required	-3749
.1	-3750
▁translation	-3751
▁प्रगति	-3752
▁i	-3753
▁झू	-3754
▁mater	-3755
सान	-3756
▁Hindi	-3757
▁वृद्धि	-3758
▁knows	-3759
ches	-3760
ंगे	-3761
म्मे	-3762
▁फल	-3763
▁लेते	-3764
▁PRESIDENT	-3765
▁Prime	-3766
▁तंत्र	-3767
▁अधि	-3768
▁Israel	-3769
▁प्रबंधन	-3770
▁previous	-3771
▁son	-3772
▁नाज़िल	-3773
▁forth	-3774
ivil	-3775
गि	-3776
ंसा	-3777
▁Develop	-3778
▁समिति	-3779
▁feel	-3780
bar	-3781
▁दिनों	-3782
घा	-3783
▁पहली	-3784
▁केन्द्र	-3785
▁selected	-3786
▁Singh	-3787
ergy	-3788
गतान	-3789
▁अलावा	-3790
▁brother	-3791
▁उपकरण	-3792
plement	-3793
▁reason	-3794
change	-3795
ibility	-3796
▁share	-3797
निश्चित	-3798
▁position	-3799
▁ट्र	-3800
▁पिछले	-3801
omes	-3802
यामत	-3803
▁मृत्यु	-3804
▁मॉ	-3805
▁reward	-3806
र्श	-3807
▁mis	-3808
▁Name	-3809
▁money	-3810
ानि	-3811
यु	-3812
▁"%	-3813
स्थिति	-3814
▁शो	-3815
▁possible	-3816
▁occasion	-3817
▁सहित	-3818
▁लें	-3819
▁जाय	-3820
We	-3821
▁193	-3822
▁रखता	-3823
ior	-3824
just	-3825
▁industry	-3826
▁flow	-3827
▁कृपया	-3828
ION	-3829
▁either	-3830
stitute	-3831
र्जी	-3832
optional	-3833
▁ur	-3834
uation	-3835
▁Pe	-3836
▁several	-3837
▁उत्पन्न	-3838
▁foreign	-3839
▁गुनाह	-3840
udd	-3841
▁relations	-3842
▁सेना	-3843
▁समर्थन	-3844
पट	-3845
▁dom	-3846
▁भीतर	-3847
men	-3848
▁विंडो	-3849
▁खाता	-3850
▁application	-3851
ँच	-3852
▁न्यू	-3853
▁connect	-3854
ouncil	-3855
earch	-3856
▁पुस्तक	-3857
▁priv	-3858
IC	-3859
न्यास	-3860
▁मही	-3861
▁पूंजी	-3862
पण	-3863
द्रा	-3864
▁अध्ययन	-3865
▁error	-3866
▁पुनः	-3867
▁हटा	-3868
cious	-3869
▁activities	-3870
▁प्रश्न	-3871
▁मंत्री	-3872
▁research	-3873
▁dise	-3874
▁certainly	-3875
cent	-3876
शाली	-3877
▁concern	-3878
▁एम	-3879
▁देव	-3880
▁खे	-3881
▁Hindu	-3882
▁Ministry	-3883
▁access	-3884
ज़े	-3885
▁*	-3886
▁authority	-3887
▁mother	-3888
IA	-3889
ring	-3890
ault	-3891
▁Offic	-3892
▁सुनिश्चित	-3893
▁मिटा	-3894
▁character	-3895
hold	-3896
▁निशान	-3897
most	-3898
ively	-3899
aster	-3900
▁सर्वर	-3901
▁संभाव	-3902
▁चिकित	-3903
▁प्रशिक्षण	-3904
▁Cong	-3905
▁Sw	-3906
िको	-3907
▁Parliament	-3908
▁face	-3909
▁आत्म	-3910
otion	-3911
▁भुगतान	-3912
▁contact	-3913
▁sat	-3914
▁commit	-3915
▁21	-3916
्रोत	-3917
ony	-3918
ौती	-3919
▁Some	-3920
▁योग्य	-3921
icle	-3922
▁University	-3923
▁फ़र	-3924
ince	-3925
▁example	-3926
▁ति	-3927
स्ती	-3928
▁progress	-3929
▁राजा	-3930
mission	-3931
▁(19	-3932
▁तुल	-3933
▁क्षमा	-3934
▁stat	-3935
ापन	-3936
तुम	-3937
▁itself	-3938
▁recogn	-3939
शु	-3940
▁Comp	-3941
▁अनुप	-3942
▁sum	-3943
urely	-3944
uf	-3945
▁technology	-3946
ton	-3947
cell	-3948
▁fall	-3949
बान	-3950
▁ऊर्जा	-3951
see	-3952
▁वास्तविक	-3953
▁मात्रा	-3954
▁दक्षिण	-3955
्ष्	-3956
▁सफलता	-3957
▁plant	-3958
▁financial	-3959
▁चाल	-3960
▁समुदा	-3961
▁धार	-3962
▁भावना	-3963
▁Bo	-3964
▁लिखा	-3965
▁संग्रह	-3966
▁पौ	-3967
idd	-3968
जनिक	-3969
▁ख़ु	-3970
स्कार	-3971
▁आदमी	-3972
▁fut	-3973
▁obs	-3974
▁हैः	-3975
▁भिन्न	-3976
▁link	-3977
lu	-3978
▁कांग	-3979
पु	-3980
क्या	-3981
▁went	-3982
गाह	-3983
▁उपबंध	-3984
vi	-3985
▁सत्ता	-3986
▁सरकारी	-3987
▁आधुनिक	-3988
▁anything	-3989
▁lab	-3990
rodu	-3991
▁आख़िर	-3992
▁visit	-3993
▁मुसलमान	-3994
ेमाल	-3995
▁don	-3996
▁air	-3997
▁inn	-3998
▁opp	-3999
▁हित	-4000
ुआ	-4001
▁anim	-4002
▁जाएँगे	-4003
म्ब	-4004
▁बिल	-4005
aries	-4006
augh	-4007
वाले	-4008
▁उनपर	-4009
▁इस्तेमाल	-4010
ण्श	-4011
ण्श्छ	-4012
▁पुरा	-4013
ण्श्छ्ष्	-4014
▁production	-4015
ully	-4016
ऊण्श्छ्ष्	-4017
त्सा	-4018
▁rate	-4019
▁फाइल	-4020
▁+	-4021
▁using	-4022
▁दाय	-4023
▁वेबसाइट	-4024
▁assess	-4025
▁elect	-4026
▁trust	-4027
ियान	-4028
▁वापस	-4029
▁राज्यों	-4030
▁बच्चे	-4031
▁सिर	-4032
▁मुक़	-4033
▁रिपोर्ट	-4034
▁difficult	-4035
गो	-4036
mber	-4037
▁provisions	-4038
ैल	-4039
▁history	-4040
ँह	-4041
▁mag	-4042
▁lib	-4043
▁grant	-4044
▁quality	-4045
▁चुनें	-4046
arat	-4047
▁खुल	-4048
▁जैसी	-4049
▁प्रे	-4050
पे	-4051
स्ति	-4052
une	-4053
वस	-4054
▁युवा	-4055
▁Af	-4056
विष्य	-4057
▁Here	-4058
▁deal	-4059
▁खो	-4060
▁line	-4061
▁property	-4062
▁agricult	-4063
isl	-4064
▁represent	-4065
▁खाते	-4066
▁Des	-4067
bsite	-4068
▁सम्मान	-4069
▁खुद	-4070
▁established	-4071
ened	-4072
▁nat	-4073
▁App	-4074
▁Ver	-4075
▁Pradesh	-4076
imum	-4077
ograph	-4078
▁works	-4079
▁प्रदर्श	-4080
▁General	-4081
▁सार्वजनिक	-4082
▁कट	-4083
▁क्ल	-4084
▁working	-4085
▁कप	-4086
▁सुना	-4087
by	-4088
▁purpose	-4089
▁Court	-4090
▁ident	-4091
aps	-4092
▁उम्	-4093
▁Direct	-4094
▁वन	-4095
द्रीय	-4096
▁वो	-4097
▁fire	-4098
ets	-4099
▁मामलों	-4100
खी	-4101
▁आक	-4102
▁Fin	-4103
▁enj	-4104
▁harm	-4105
ape	-4106
भूत	-4107
▁hy	-4108
▁पूरे	-4109
obal	-4110
▁हस्ता	-4111
▁material	-4112
▁top	-4113
2.	-4114
▁दृश्य	-4115
▁therein	-4116
▁उद्य	-4117
▁पुरुष	-4118
ension	-4119
▁scheme	-4120
▁कमा	-4121
▁Dr	-4122
▁26	-4123
▁Serv	-4124
▁suff	-4125
▁रहो	-4126
urope	-4127
▁प्रकृति	-4128
ंथ	-4129
▁Co	-4130
▁save	-4131
▁अह	-4132
▁ded	-4133
ills	-4134
▁साफ	-4135
acity	-4136
▁image	-4137
▁मश	-4138
▁अत्यन्त	-4139
▁भविष्य	-4140
ilar	-4141
▁soul	-4142
aun	-4143
▁जे	-4144
▁big	-4145
▁necessary	-4146
निक	-4147
▁उल्लेख	-4148
▁started	-4149
▁ens	-4150
राह	-4151
ामीण	-4152
▁course	-4153
▁यूर	-4154
▁behind	-4155
▁निकट	-4156
▁मालूम	-4157
▁meeting	-4158
▁कम्प	-4159
rab	-4160
ilt	-4161
▁संपाद	-4162
▁security	-4163
▁चले	-4164
▁entire	-4165
▁IND	-4166
▁खरी	-4167
▁जहन्न	-4168
▁mail	-4169
osp	-4170
▁बातें	-4171
mend	-4172
▁संगठन	-4173
▁शासन	-4174
▁शुभ	-4175
▁dri	-4176
▁संशो	-4177
▁vi	-4178
▁आत	-4179
▁कोशिश	-4180
▁Open	-4181
्यूटर	-4182
▁hath	-4183
▁Could	-4184
▁mercy	-4185
ख्स	-4186
▁यक़ीनन	-4187
▁files	-4188
▁network	-4189
▁Development	-4190
osed	-4191
irth	-4192
ायद	-4193
itiz	-4194
▁गुर	-4195
ग़म्बर	-4196
▁जरूरत	-4197
▁By	-4198
▁hon	-4199
▁बातों	-4200
ारों	-4201
▁000	-4202
▁referred	-4203
▁future	-4204
नाव	-4205
▁दिखाएँ	-4206
र्चा	-4207
त्त्व	-4208
▁खिला	-4209
▁demand	-4210
▁लाल	-4211
▁High	-4212
▁related	-4213
▁सत	-4214
▁ten	-4215
▁bar	-4216
ethod	-4217
▁close	-4218
▁continu	-4219
▁Congress	-4220
तृ	-4221
फ्	-4222
▁greater	-4223
▁डॉ	-4224
▁redu	-4225
▁सदस्यों	-4226
ंडल	-4227
▁संके	-4228
istan	-4229
▁वैज्ञान	-4230
▁court	-4231
बूत	-4232
वाही	-4233
▁Know	-4234
erciful	-4235
▁=	-4236
▁asked	-4237
श्वर	-4238
word	-4239
▁fight	-4240
चर	-4241
▁पस	-4242
mitted	-4243
▁करोड़	-4244
▁implement	-4245
ारोह	-4246
▁अन्	-4247
▁news	-4248
▁शख्स	-4249
िब	-4250
▁ग्रामीण	-4251
airs	-4252
▁ढा	-4253
▁संसद	-4254
esides	-4255
▁विनिर्	-4256
pur	-4257
▁got	-4258
▁जिनमें	-4259
▁Thus	-4260
एक	-4261
ipp	-4262
▁ऑफ	-4263
▁सक्षम	-4264
लाइन	-4265
unt	-4266
▁higher	-4267
▁institutions	-4268
▁नदी	-4269
▁agree	-4270
मय	-4271
▁community	-4272
▁Now	-4273
▁Mar	-4274
engers	-4275
एफ	-4276
▁decl	-4277
urs	-4278
चारी	-4279
▁छिप	-4280
▁कानून	-4281
▁six	-4282
▁House	-4283
▁सामग्री	-4284
ung	-4285
▁अपेक्षा	-4286
▁whatever	-4287
म्भ	-4288
▁उचित	-4289
▁लॉ	-4290
▁Ev	-4291
▁written	-4292
▁पर्य	-4293
▁समझा	-4294
aged	-4295
action	-4296
▁mount	-4297
▁treat	-4298
▁RRB	-4299
ointed	-4300
▁देखने	-4301
ल्ल	-4302
▁गी	-4303
▁city	-4304
▁नेट	-4305
▁पहा	-4306
▁revealed	-4307
bit	-4308
ड़क	-4309
▁31	-4310
▁̧	-4311
▁बने	-4312
▁प्रशासन	-4313
▁तारी	-4314
वर्ष	-4315
▁once	-4316
▁students	-4317
▁Europe	-4318
▁warn	-4319
▁23	-4320
दर्भ	-4321
▁कहो	-4322
▁guidance	-4323
▁initi	-4324
▁specified	-4325
rast	-4326
▁अपरा	-4327
▁comes	-4328
olk	-4329
side	-4330
▁List	-4331
▁living	-4332
▁Su	-4333
poses	-4334
▁संरचना	-4335
--	-4336
▁leaders	-4337
▁ईसा	-4338
र्ग	-4339
▁stri	-4340
▁forward	-4341
▁समारोह	-4342
गीत	-4343
▁रिक	-4344
▁इतना	-4345
▁जित	-4346
काम	-4347
▁जवाब	-4348
▁प्रकट	-4349
▁केंद्रीय	-4350
▁paid	-4351
▁बाज़	-4352
▁step	-4353
▁sal	-4354
▁दिखाई	-4355
▁months	-4356
▁Cal	-4357
fully	-4358
▁पश्चात	-4359
▁repl	-4360
▁व्यापक	-4361
¤¿	-4362
▁website	-4363
▁अध्यक्ष	-4364
▁modern	-4365
▁lay	-4366
▁स्कूल	-4367
Name	-4368
▁ans	-4369
▁imm	-4370
▁पुरस्कार	-4371
uly	-4372
▁देती	-4373
▁री	-4374
▁ones	-4375
▁संदर्भ	-4376
▁प्रतिनि	-4377
▁काफ़	-4378
प्रे	-4379
▁रक्षा	-4380
मह	-4381
ront	-4382
▁बाप	-4383
ones	-4384
▁हास	-4385
टल	-4386
▁मुँह	-4387
वालों	-4388
▁rele	-4389
थमिक	-4390
▁तौ	-4391
▁टै	-4392
च्छेद	-4393
▁Union	-4394
ned	-4395
ीप	-4396
▁soon	-4397
▁दशा	-4398
▁रोज	-4399
▁प्रोत्सा	-4400
▁tell	-4401
▁गांव	-4402
▁बयान	-4403
▁Department	-4404
▁निर्यात	-4405
ृह	-4406
▁according	-4407
▁told	-4408
▁past	-4409
▁Nor	-4410
▁Pol	-4411
▁prep	-4412
▁goods	-4413
ruction	-4414
▁role	-4415
▁story	-4416
▁verily	-4417
▁believed	-4418
-#	-4419
ंगी	-4420
▁खाद	-4421
▁बुला	-4422
▁righteous	-4423
▁abs	-4424
atives	-4425
▁determ	-4426
▁आँ	-4427
▁इनमें	-4428
▁Er	-4429
टों	-4430
श्त	-4431
ek	-4432
▁Sat	-4433
▁Sp	-4434
पूर्वक	-4435
▁Committee	-4436
orrow	-4437
▁पड़ा	-4438
anch	-4439
▁गैर	-4440
▁वजह	-4441
itive	-4442
बह	-4443
ोग्राम	-4444
ina	-4445
▁pub	-4446
▁needs	-4447
der	-4448
▁सहेज	-4449
▁environment	-4450
▁cell	-4451
▁pot	-4452
hood	-4453
▁separ	-4454
▁कांग्रेस	-4455
सत	-4456
phet	-4457
▁eyes	-4458
▁योगदान	-4459
वधान	-4460
▁औद्योगिक	-4461
बि	-4462
ush	-4463
▁recom	-4464
▁बदले	-4465
▁अधिका	-4466
▁force	-4467
ैक	-4468
ison	-4469
▁मुद्रा	-4470
ji	-4471
▁thy	-4472
▁28	-4473
▁claim	-4474
▁Such	-4475
ideo	-4476
ires	-4477
reedom	-4478
▁दौ	-4479
▁office	-4480
lled	-4481
▁LRB	-4482
▁destro	-4483
▁king	-4484
▁शायद	-4485
▁wis	-4486
▁doing	-4487
▁मुझ	-4488
rish	-4489
▁प्राय	-4490
▁method	-4491
▁पथ	-4492
▁लौट	-4493
▁सर्वो	-4494
▁problem	-4495
ंकन	-4496
▁lot	-4497
▁27	-4498
▁till	-4499
ख़ुदा	-4500
ategory	-4501
¤	-4502
चीन	-4503
lier	-4504
▁डिस्क	-4505
▁phys	-4506
▁Muslims	-4507
▁computer	-4508
,000	-4509
▁निजी	-4510
▁Constitution	-4511
▁ठहरा	-4512
▁आवेदन	-4513
कान	-4514
▁प्राथमिक	-4515
▁vari	-4516
idered	-4517
▁स्वतंत्रता	-4518
abha	-4519
medi	-4520
▁किंतु	-4521
▁आयु	-4522
▁पालन	-4523
▁चाहिये	-4524
ored	-4525
ल्पना	-4526
ont	-4527
▁शर्	-4528
वर्ती	-4529
▁invol	-4530
aves	-4531
▁रखना	-4532
▁केन्द	-4533
AP	-4534
ival	-4535
▁building	-4536
▁ter	-4537
▁रहेंगे	-4538
▁Qur	-4539
▁turned	-4540
0}	-4541
▁particip	-4542
cription	-4543
▁learn	-4544
▁̈	-4545
ैतिक	-4546
▁century	-4547
istic	-4548
▁design	-4549
एन	-4550
acher	-4551
▁रखो	-4552
▁Bengal	-4553
▁extend	-4554
▁Mad	-4555
▁check	-4556
▁international	-4557
▁Govern	-4558
▁आतंक	-4559
▁आयतों	-4560
▁why	-4561
▁ध्व	-4562
▁प्रतिक	-4563
▁however	-4564
▁Mr	-4565
▁लेखा	-4566
राज	-4567
▁यूरोप	-4568
▁blood	-4569
ani	-4570
▁ange	-4571
▁party	-4572
itation	-4573
oid	-4574
▁उल	-4575
▁basis	-4576
▁रखे	-4577
्वी	-4578
irt	-4579
रुद्ध	-4580
▁Let	-4581
soever	-4582
▁parts	-4583
▁एशिया	-4584
▁चयनित	-4585
▁acqu	-4586
▁अर्था	-4587
▁appointed	-4588
▁super	-4589
!"	-4590
ita	-4591
▁रेल	-4592
▁संस्कृति	-4593
▁considered	-4594
▁ground	-4595
▁bea	-4596
▁Sche	-4597
▁Select	-4598
▁energy	-4599
▁vol	-4600
▁speak	-4601
▁भग	-4602
▁problems	-4603
दृ	-4604
▁administr	-4605
▁संगीत	-4606
▁purposes	-4607
रल	-4608
▁Part	-4609
▁आयात	-4610
र्न	-4611
घु	-4612
▁loss	-4613
▁इस्लाम	-4614
वत	-4615
▁प्रभा	-4616
▁sun	-4617
▁Council	-4618
▁movement	-4619
▁arch	-4620
▁ess	-4621
▁Lo	-4622
▁changes	-4623
▁किन	-4624
क्रमण	-4625
ama	-4626
▁Surely	-4627
▁लागत	-4628
▁अवश्य	-4629
▁व्यक्तियों	-4630
▁integr	-4631
▁Moses	-4632
▁सृ	-4633
▁तय	-4634
ript	-4635
▁terms	-4636
▁बोर्ड	-4637
ूदा	-4638
▁रकम	-4639
iation	-4640
acy	-4641
▁tree	-4642
▁उद्यम	-4643
ृति	-4644
▁Cor	-4645
▁manner	-4646
पक	-4647
▁आशा	-4648
खंड	-4649
वर्क	-4650
▁इब	-4651
▁Fire	-4652
▁custom	-4653
essee	-4654
ulf	-4655
▁राय	-4656
with	-4657
▁fru	-4658
▁dele	-4659
ological	-4660
लिस	-4661
▁host	-4662
▁crit	-4663
▁bra	-4664
न्व	-4665
▁Techn	-4666
ificate	-4667
▁fr	-4668
▁Verily	-4669
▁discuss	-4670
sue	-4671
ड़ाई	-4672
▁निदेश	-4673
▁single	-4674
▁22	-4675
▁आयोजित	-4676
लब	-4677
▁tor	-4678
▁firm	-4679
▁कार्यालय	-4680
hether	-4681
▁display	-4682
▁बज	-4683
▁begin	-4684
▁pen	-4685
▁persons	-4686
know	-4687
.)	-4688
▁squ	-4689
▁आवा	-4690
▁deep	-4691
▁cho	-4692
▁विधान	-4693
▁However	-4694
फर	-4695
सिक	-4696
▁शता	-4697
▁Information	-4698
▁दश	-4699
▁princip	-4700
ोलन	-4701
▁trade	-4702
▁server	-4703
▁तत्	-4704
▁Public	-4705
▁ढंग	-4706
▁पांच	-4707
amb	-4708
▁citiz	-4709
asing	-4710
▁प्रभावित	-4711
rary	-4712
reet	-4713
▁scient	-4714
▁सकें	-4715
लाम	-4716
▁often	-4717
▁डाला	-4718
▁assist	-4719
▁village	-4720
▁spread	-4721
▁mention	-4722
मेल	-4723
मो	-4724
ouses	-4725
▁press	-4726
▁establish	-4727
िकी	-4728
नेवाला	-4729
his	-4730
▁पर्याप्त	-4731
▁दल	-4732
▁बंगाल	-4733
▁प्रकाशित	-4734
▁poor	-4735
▁भौ	-4736
▁sense	-4737
सन	-4738
्सा	-4739
▁messages	-4740
▁अध्या	-4741
▁carry	-4742
▁destroy	-4743
▁religious	-4744
▁निधि	-4745
▁sac	-4746
▁books	-4747
4)	-4748
▁protect	-4749
▁remember	-4750
vey	-4751
html	-4752
▁task	-4753
▁undert	-4754
▁anc	-4755
▁दूसरा	-4756
▁स्रोत	-4757
▁अवस्था	-4758
▁मुक्त	-4759
▁passed	-4760
imate	-4761
aper	-4762
इयों	-4763
▁समुदाय	-4764
▁व्यवहार	-4765
▁निर्धारिती	-4766
▁असम	-4767
▁terror	-4768
▁assessee	-4769
▁शांति	-4770
▁(%	-4771
▁Ed	-4772
▁size	-4773
ousand	-4774
परी	-4775
▁Bl	-4776
सु	-4777
▁general	-4778
aught	-4779
मक	-4780
aint	-4781
▁makes	-4782
▁America	-4783
go	-4784
थि	-4785
ixed	-4786
▁झूठ	-4787
▁gives	-4788
▁issued	-4789
▁mach	-4790
▁ब्या	-4791
▁management	-4792
....	-4793
▁wealth	-4794
▁sound	-4795
▁पाल	-4796
नेवाले	-4797
▁देंगे	-4798
▁राजनीतिक	-4799
▁red	-4800
▁नर	-4801
▁Set	-4802
िल्म	-4803
▁विभा	-4804
▁allowed	-4805
▁benefit	-4806
▁1,	-4807
50	-4808
▁हल	-4809
rect	-4810
ड्ड	-4811
ुता	-4812
▁er	-4813
▁सलाह	-4814
▁हासिल	-4815
▁low	-4816
ke	-4817
माज़	-4818
द्यपि	-4819
▁चुकी	-4820
▁maint	-4821
▁Muhammad	-4822
atory	-4823
फ्त	-4824
स्‍	-4825
▁बनी	-4826
▁INDIA	-4827
▁civil	-4828
-201	-4829
▁thus	-4830
▁पर्यावरण	-4831
▁मुखर्जी	-4832
▁aud	-4833
क्का	-4834
▁none	-4835
▁प्रभ	-4836
va	-4837
कला	-4838
▁2000	-4839
राष्ट्रीय	-4840
नो	-4841
▁wish	-4842
▁चर	-4843
▁दिवस	-4844
▁reach	-4845
▁expect	-4846
▁depend	-4847
▁patient	-4848
▁3.	-4849
▁UR	-4850
▁viol	-4851
▁रक्त	-4852
▁freedom	-4853
anabm	-4854
pranabm	-4855
pranabmukherjee	-4856
ग्	-4857
City	-4858
▁अनुप्र	-4859
▁compan	-4860
▁निम्नलिखित	-4861
रीय	-4862
▁सुरक्षित	-4863
▁गि	-4864
नेट	-4865
स्पर	-4866
राज्य	-4867
▁असफल	-4868
ift	-4869
कत	-4870
iii	-4871
▁संय	-4872
▁everything	-4873
▁तीस	-4874
षद	-4875
use	-4876
▁केन्द्रीय	-4877
wer	-4878
sequ	-4879
▁natural	-4880
▁taking	-4881
▁increase	-4882
▁conduct	-4883
rec	-4884
▁लाने	-4885
▁aware	-4886
▁region	-4887
▁conditions	-4888
▁efforts	-4889
फ्ट	-4890
▁Chand	-4891
▁भारी	-4892
▁दृष्ट	-4893
▁संरक्षण	-4894
▁चर्चा	-4895
▁पदार्थ	-4896
ालिम	-4897
▁सेवाओं	-4898
कल	-4899
▁norm	-4900
▁̧à	-4901
डिया	-4902
uses	-4903
▁धी	-4904
orld	-4905
then	-4906
▁fel	-4907
ows	-4908
मीद	-4909
ियर	-4910
क्षक	-4911
▁ant	-4912
krit	-4913
▁fig	-4914
▁समझौ	-4915
▁source	-4916
hara	-4917
new	-4918
inary	-4919
घ्र	-4920
धाई	-4921
▁आपकी	-4922
▁यद्यपि	-4923
पो	-4924
्टर	-4925
ात्मक	-4926
▁तेल	-4927
▁सीधे	-4928
स्त्र	-4929
▁प्रमाणपत्र	-4930
▁matters	-4931
▁क्रम	-4932
▁really	-4933
▁बैठक	-4934
▁institution	-4935
idden	-4936
ech	-4937
▁li	-4938
ंद्र	-4939
ols	-4940
itude	-4941
▁neither	-4942
▁कहना	-4943
ैव	-4944
वत्ता	-4945
▁global	-4946
▁search	-4947
ew	-4948
app	-4949
्यो	-4950
▁इका	-4951
▁अनुक	-4952
▁million	-4953
ots	-4954
▁शब्दों	-4955
▁विशाल	-4956
nam	-4957
▁बाग़	-4958
ples	-4959
▁reject	-4960
▁fast	-4961
▁alone	-4962
▁आत्मा	-4963
दूस	-4964
over	-4965
▁डेटा	-4966
▁pet	-4967
▁partners	-4968
▁duty	-4969
▁साह	-4970
▁jour	-4971
▁आता	-4972
▁दिख	-4973
▁enjoy	-4974
believers	-4975
▁culture	-4976
▁फरमा	-4977
▁cover	-4978
iles	-4979
▁दू	-4980
▁192	-4981
▁condition	-4982
▁least	-4983
],	-4984
▁thousand	-4985
▁बधाई	-4986
rown	-4987
tax	-4988
itable	-4989
CT	-4990
भाल	-4991
▁talk	-4992
▁आयोग	-4993
ental	-4994
▁grie	-4995
िक्	-4996
▁नगर	-4997
-2	-4998
बाह	-4999
भीर	-5000
हाद	-5001
▁bur	-5002
▁पेट	-5003
▁सिद्धांत	-5004
ंबर	-5005
▁subs	-5006
▁तरीके	-5007
▁यथा	-5008
▁developed	-5009
हीन	-5010
▁भागी	-5011
व्यवस्था	-5012
cies	-5013
▁followed	-5014
▁कदम	-5015
▁क़ुर	-5016
▁doubt	-5017
▁उत	-5018
▁early	-5019
▁exc	-5020
▁पंजी	-5021
▁parent	-5022
कीय	-5023
त्तर	-5024
▁विरुद्ध	-5025
▁transfer	-5026
▁consum	-5027
▁Ap	-5028
▁ख़बर	-5029
ptions	-5030
▁industrial	-5031
▁बढ	-5032
▁संसाधन	-5033
क्टर	-5034
▁Whether	-5035
▁Kh	-5036
क्शन	-5037
▁उपस्थित	-5038
ंदा	-5039
rs	-5040
▁assessment	-5041
णि	-5042
यल	-5043
▁पल	-5044
▁chall	-5045
▁दस	-5046
▁छोटी	-5047
दो	-5048
ilk	-5049
attle	-5050
▁सच	-5051
ज्ञात	-5052
▁पैग़म्बर	-5053
यक	-5054
धनों	-5055
▁Trans	-5056
▁training	-5057
▁गिरोह	-5058
▁अनिवार	-5059
▁Bi	-5060
भूति	-5061
▁पृथ	-5062
▁बैठे	-5063
▁एह	-5064
▁ज़ालिम	-5065
▁Error	-5066
▁member	-5067
▁प्रदर्शन	-5068
▁अत्या	-5069
▁गुणवत्ता	-5070
▁छोड़कर	-5071
kind	-5072
▁stay	-5073
▁मशीन	-5074
▁soft	-5075
▁credit	-5076
किंग	-5077
▁pros	-5078
adem	-5079
tings	-5080
iveness	-5081
लिम	-5082
▁gen	-5083
▁पसंद	-5084
gment	-5085
ार्मिक	-5086
▁भंड	-5087
▁स्म	-5088
▁रखी	-5089
▁जिला	-5090
▁प्राकृतिक	-5091
▁Cannot	-5092
▁independ	-5093
▁विविध	-5094
▁Where	-5095
▁creation	-5096
यह	-5097
vent	-5098
▁१९	-5099
▁छात्र	-5100
▁नेटवर्क	-5101
▁dead	-5102
▁opens	-5103
▁di	-5104
▁log	-5105
▁Are	-5106
▁Mon	-5107
ump	-5108
न्दर	-5109
▁temple	-5110
▁प्रभावी	-5111
उट	-5112
चक	-5113
प्ता	-5114
▁Int	-5115
iction	-5116
mon	-5117
▁जाति	-5118
▁woman	-5119
▁प्राचीन	-5120
वेयर	-5121
वाला	-5122
▁सख्त	-5123
▁programm	-5124
▁neg	-5125
▁सम्बन्ध	-5126
AS	-5127
▁dire	-5128
ल्लाह	-5129
▁बताया	-5130
न्स	-5131
▁अंक	-5132
▁आते	-5133
▁अता	-5134
▁लघु	-5135
▁...	-5136
▁पकड़	-5137
▁नमाज़	-5138
ब्दी	-5139
▁उपाय	-5140
▁saying	-5141
▁May	-5142
▁पर्व	-5143
▁अधिकांश	-5144
ल्ड	-5145
ane	-5146
vere	-5147
▁प्रसन्न	-5148
aste	-5149
oke	-5150
▁event	-5151
alay	-5152
▁File	-5153
▁भोजन	-5154
▁इच्छा	-5155
▁मेहर	-5156
▁पश्चिम	-5157
uge	-5158
▁outside	-5159
▁80	-5160
▁eat	-5161
▁literature	-5162
▁achieve	-5163
▁tou	-5164
▁तुलना	-5165
त्री	-5166
▁आंद	-5167
▁capacity	-5168
▁इला	-5169
▁विद्यार्थ	-5170
रज़	-5171
▁हट	-5172
मेलन	-5173
▁समृ	-5174
चारियों	-5175
▁बौ	-5176
धिकार	-5177
6.	-5178
rist	-5179
▁अगले	-5180
▁democ	-5181
फे	-5182
▁ज़रूर	-5183
▁महारा	-5184
▁अनिवार्य	-5185
▁hope	-5186
▁bless	-5187
▁san	-5188
▁धार्मिक	-5189
▁शिकाय	-5190
▁गतिविध	-5191
▁Qu	-5192
▁write	-5193
▁वर्णन	-5194
▁Even	-5195
▁drink	-5196
▁Prophet	-5197
▁disease	-5198
ंकि	-5199
▁गर्इ	-5200
▁provision	-5201
emed	-5202
▁town	-5203
¤2	-5204
omb	-5205
▁रखें	-5206
▁birth	-5207
षणा	-5208
alse	-5209
थर	-5210
वह	-5211
कारों	-5212
ada	-5213
abad	-5214
▁वैज्ञानिक	-5215
▁half	-5216
▁वायु	-5217
▁arr	-5218
जूद	-5219
▁trib	-5220
▁wife	-5221
न्दा	-5222
▁मना	-5223
▁बनाना	-5224
▁समाधान	-5225
▁परीक्षा	-5226
▁कंप्यूटर	-5227
्ब	-5228
▁mode	-5229
▁प्रोग्राम	-5230
▁हस्ताक्षर	-5231
▁ऊँ	-5232
▁Rec	-5233
▁gard	-5234
▁sea	-5235
ique	-5236
usion	-5237
▁mass	-5238
▁लेना	-5239
ulated	-5240
▁बन्दों	-5241
ह्न	-5242
▁शक	-5243
▁payment	-5244
▁population	-5245
▁हृ	-5246
▁user	-5247
▁charge	-5248
yle	-5249
▁fem	-5250
▁tar	-5251
▁stra	-5252
▁40	-5253
▁पश्चा	-5254
दायत	-5255
▁Div	-5256
एगा	-5257
▁अधिकारियों	-5258
.,	-5259
▁लगी	-5260
▁वीडियो	-5261
iddle	-5262
▁ग्रह	-5263
▁programme	-5264
ex	-5265
▁rights	-5266
▁ब्याज	-5267
ler	-5268
याँ	-5269
▁disbelieve	-5270
रित	-5271
▁wide	-5272
▁आपका	-5273
▁official	-5274
स्य	-5275
▁अक	-5276
▁विज	-5277
▁document	-5278
▁aim	-5279
▁saw	-5280
ल्स	-5281
▁जोड़ें	-5282
uration	-5283
▁remain	-5284
▁personal	-5285
my	-5286
्रीन	-5287
▁sust	-5288
▁People	-5289
▁angels	-5290
▁Mod	-5291
▁मिली	-5292
▁मुह	-5293
▁ir	-5294
▁compet	-5295
खे	-5296
▁मोह	-5297
▁खड़े	-5298
pecial	-5299
ेप	-5300
wise	-5301
▁mankind	-5302
▁संभावना	-5303
▁सम्मेलन	-5304
▁IN	-5305
▁कूट	-5306
posed	-5307
▁pal	-5308
▁US	-5309
▁Aut	-5310
▁insp	-5311
▁lost	-5312
▁कुंजी	-5313
▁मिलता	-5314
नाम	-5315
▁TO	-5316
▁lat	-5317
▁अक्	-5318
▁ईश्वर	-5319
▁शीघ्र	-5320
▁संस्थानों	-5321
यें	-5322
▁typ	-5323
▁तुमपर	-5324
▁उन्हीं	-5325
ell	-5326
▁immedi	-5327
ares	-5328
राहीम	-5329
▁जल्दी	-5330
▁आख़िरत	-5331
3.	-5332
▁Per	-5333
▁resources	-5334
▁पाने	-5335
▁include	-5336
▁try	-5337
▁दबा	-5338
▁वाक़	-5339
▁cut	-5340
rastructure	-5341
▁receive	-5342
रू	-5343
साथ	-5344
▁संपत्ति	-5345
▁पद्ध	-5346
▁Mukherjee	-5347
झी	-5348
ava	-5349
face	-5350
ंपरा	-5351
ज़ार	-5352
ल्कुल	-5353
ाई	-5354
vert	-5355
▁exe	-5356
▁शैली	-5357
▁judge	-5358
▁almost	-5359
▁request	-5360
4.	-5361
▁सात	-5362
▁दर्शा	-5363
रान	-5364
▁stru	-5365
undred	-5366
▁उम्मीद	-5367
▁sugg	-5368
pril	-5369
estern	-5370
▁मजबूत	-5371
▁cases	-5372
▁deny	-5373
▁तुममें	-5374
स्लिम	-5375
न्नत	-5376
▁innov	-5377
Ex	-5378
▁suggest	-5379
▁आती	-5380
▁उपभ	-5381
ufact	-5382
▁करनी	-5383
▁Rel	-5384
औन	-5385
▁चीज	-5386
rew	-5387
ाब	-5388
संग	-5389
▁प्रणब	-5390
▁rule	-5391
▁price	-5392
▁Section	-5393
▁earlier	-5394
aff	-5395
ार्क	-5396
ताल	-5397
empt	-5398
▁बर्	-5399
ोजनों	-5400
▁kept	-5401
anskrit	-5402
▁accom	-5403
▁writing	-5404
▁revel	-5405
▁तारीख	-5406
duc	-5407
▁वैश्व	-5408
IL	-5409
▁multip	-5410
▁हिन्दी	-5411
िकोण	-5412
▁कविता	-5413
▁पुनर्	-5414
वों	-5415
स्टम	-5416
ेगा	-5417
▁raised	-5418
▁ब्रिट	-5419
▁across	-5420
▁bal	-5421
▁deli	-5422
▁lakh	-5423
▁संसार	-5424
▁समझते	-5425
▁continue	-5426
▁Mem	-5427
5.	-5428
ging	-5429
▁rad	-5430
▁experience	-5431
▁seven	-5432
▁Merciful	-5433
¤1	-5434
ॉप	-5435
isf	-5436
स्टर	-5437
▁Sabha	-5438
▁Project	-5439
▁छु	-5440
▁install	-5441
▁similar	-5442
▁श्रेणीः	-5443
▁चिकित्सा	-5444
▁खरीद	-5445
press	-5446
▁हालत	-5447
▁कने	-5448
िश्ते	-5449
▁जरूरी	-5450
▁strength	-5451
▁cast	-5452
▁Institute	-5453
▁कार्यों	-5454
▁रहती	-5455
▁torment	-5456
▁एज	-5457
▁गं	-5458
▁पहल	-5459
स्वरूप	-5460
▁Afric	-5461
▁space	-5462
▁स्त्र	-5463
▁says	-5464
▁खर्च	-5465
▁सम्मिल	-5466
ँकि	-5467
▁डरा	-5468
ables	-5469
▁enough	-5470
मेंट	-5471
▁इन्ह	-5472
▁दिलों	-5473
▁require	-5474
▁अंश	-5475
▁हिदायत	-5476
धियों	-5477
UR	-5478
बु	-5479
▁विद	-5480
ifest	-5481
▁मानते	-5482
▁पुलिस	-5483
▁products	-5484
▁Fl	-5485
gest	-5486
▁boy	-5487
▁job	-5488
▁रहना	-5489
▁सित	-5490
endar	-5491
▁third	-5492
ठित	-5493
▁(3)	-5494
II	-5495
erved	-5496
▁सीमित	-5497
▁operation	-5498
ees	-5499
्वेष	-5500
▁ign	-5501
्प	-5502
जली	-5503
▁Tra	-5504
▁1961	-5505
ठी	-5506
▁पिता	-5507
rection	-5508
▁pow	-5509
▁अनुप्रयोग	-5510
▁Jan	-5511
▁astr	-5512
कालीन	-5513
विक	-5514
▁तथ	-5515
▁West	-5516
ators	-5517
▁निर्भर	-5518
▁district	-5519
▁laun	-5520
▁Mahar	-5521
▁सैन	-5522
▁enem	-5523
▁ब्रिटिश	-5524
▁SA	-5525
rences	-5526
▁projects	-5527
ालित	-5528
▁निर्मित	-5529
rote	-5530
▁हजार	-5531
-#-#	-5532
▁भंडार	-5533
▁private	-5534
▁structure	-5535
▁सारी	-5536
▁farmers	-5537
uary	-5538
▁जहन्नुम	-5539
▁Republic	-5540
▁फेर	-5541
▁विफल	-5542
शय	-5543
सिद्ध	-5544
▁युग	-5545
▁Arab	-5546
▁वार्ष	-5547
▁affect	-5548
▁साधारण	-5549
▁science	-5550
▁apply	-5551
▁करनेवालों	-5552
▁परंपरा	-5553
let	-5554
▁states	-5555
▁desire	-5556
▁बिल्कुल	-5557
▁Budd	-5558
▁रास्त	-5559
ब्र	-5560
▁इबराहीम	-5561
▁पहुंचा	-5562
▁hundred	-5563
▁दुख	-5564
▁नो	-5565
gn	-5566
▁प्रवि	-5567
ager	-5568
well	-5569
▁below	-5570
▁guard	-5571
oly	-5572
lebr	-5573
▁investment	-5574
देव	-5575
▁Med	-5576
igation	-5577
▁Work	-5578
▁lear	-5579
▁अपील	-5580
▁आपने	-5581
▁छोटा	-5582
▁astray	-5583
▁भगवान	-5584
दर्शी	-5585
▁गलत	-5586
▁Pers	-5587
ivity	-5588
▁Board	-5589
▁शाखा	-5590
▁influ	-5591
▁संकेत	-5592
डल	-5593
▁Jud	-5594
▁शताब्दी	-5595
▁बख	-5596
▁introdu	-5597
▁अर्थव्यवस्था	-5598
oud	-5599
▁guide	-5600
umn	-5601
▁pra	-5602
मीर	-5603
राब	-5604
▁ताल	-5605
anda	-5606
▁conne	-5607
▁परिच	-5608
▁संशोधन	-5609
तया	-5610
▁id	-5611
▁भ्र	-5612
▁wait	-5613
▁आदर्श	-5614
अपने	-5615
▁fulf	-5616
ban	-5617
▁नसी	-5618
▁किसानों	-5619
▁signific	-5620
▁United	-5621
्राष्ट्रीय	-5622
▁carried	-5623
▁forms	-5624
▁शेष	-5625
▁tour	-5626
▁eight	-5627
owed	-5628
म्म	-5629
▁failed	-5630
▁अभिलेख	-5631
▁draw	-5632
▁Off	-5633
▁front	-5634
▁East	-5635
्यालयों	-5636
▁teacher	-5637
▁page	-5638
▁सच्चे	-5639
pecially	-5640
haps	-5641
▁विरोध	-5642
▁guided	-5643
fficient	-5644
▁April	-5645
▁विचारों	-5646
);	-5647
▁Che	-5648
▁तरफ़	-5649
▁decided	-5650
▁exchange	-5651
▁शैतान	-5652
▁Sur	-5653
▁प्रतिष्ठ	-5654
",	-5655
▁Asia	-5656
▁attack	-5657
nds	-5658
ney	-5659
▁0.	-5660
▁rural	-5661
▁प्रदर्शित	-5662
▁हवा	-5663
fo	-5664
▁hear	-5665
वृत्ति	-5666
▁खुलती	-5667
▁व्यक्तिगत	-5668
▁मौजूदा	-5669
▁From	-5670
▁अंदर	-5671
▁reform	-5672
▁अत्यंत	-5673
▁ancient	-5674
▁एव	-5675
agar	-5676
llah	-5677
▁Pun	-5678
lear	-5679
▁bear	-5680
▁Brah	-5681
▁provides	-5682
भूम	-5683
estic	-5684
▁prepared	-5685
कात	-5686
▁समुद्र	-5687
▁निर्वा	-5688
स्कृतिक	-5689
▁आंदोलन	-5690
▁प्रयोजनों	-5691
ंगल	-5692
ध्या	-5693
▁World	-5694
▁places	-5695
म्र	-5696
▁महीने	-5697
▁quot	-5698
▁South	-5699
▁relating	-5700
▁issue	-5701
ales	-5702
▁अप्रैल	-5703
▁संघर्ष	-5704
धर	-5705
▁विंडों	-5706
▁इंटर	-5707
▁economy	-5708
▁फी	-5709
ades	-5710
nding	-5711
वै	-5712
▁शक़	-5713
▁approach	-5714
▁सम्मिलित	-5715
्‍य	-5716
▁निगम	-5717
सब	-5718
▁music	-5719
दूसरे	-5720
▁King	-5721
▁अंग्रेजी	-5722
eb	-5723
▁सत्या	-5724
▁नेता	-5725
▁bound	-5726
11	-5727
▁Ins	-5728
▁Pal	-5729
▁Sanskrit	-5730
ब्ल	-5731
gram	-5732
▁विद्व	-5733
▁कठिन	-5734
▁behalf	-5735
ED	-5736
कुल	-5737
▁कीमत	-5738
▁मुस्लिम	-5739
▁decision	-5740
लग्न	-5741
▁disbelievers	-5742
▁promise	-5743
▁Use	-5744
▁काट	-5745
▁स्थायी	-5746
िना	-5747
▁Their	-5748
uck	-5749
▁̈à	-5750
▁नागरिक	-5751
▁strengthen	-5752
▁coop	-5753
▁improve	-5754
▁29	-5755
▁foc	-5756
▁सदैव	-5757
▁बढ़ाने	-5758
mir	-5759
ports	-5760
▁विवाह	-5761
▁produce	-5762
▁घट	-5763
urance	-5764
vant	-5765
ल्ला	-5766
तरा	-5767
▁Gur	-5768
▁Har	-5769
▁चरण	-5770
▁issues	-5771
5)	-5772
्रेड	-5773
▁crop	-5774
▁dark	-5775
▁built	-5776
eral	-5777
▁led	-5778
▁manufact	-5779
▁Up	-5780
▁defe	-5781
▁status	-5782
ेक्ट	-5783
▁इंडिया	-5784
▁बुद्धि	-5785
▁चढ़	-5786
मैं	-5787
हरे	-5788
▁Ak	-5789
iture	-5790
परि	-5791
▁लगाया	-5792
▁actually	-5793
▁नोट	-5794
ष्ट्र	-5795
▁situation	-5796
▁फैला	-5797
▁accord	-5798
▁महत्त्व	-5799
िमी	-5800
▁video	-5801
▁da	-5802
▁color	-5803
▁depos	-5804
ियत	-5805
▁stop	-5806
▁rules	-5807
▁proceed	-5808
जनक	-5809
▁जोर	-5810
osop	-5811
▁tele	-5812
▁रहेगा	-5813
▁आकाशों	-5814
न्त्र	-5815
▁Cert	-5816
▁तेजी	-5817
▁जिम्मे	-5818
▁popular	-5819
▁झग	-5820
▁lives	-5821
▁instrument	-5822
inion	-5823
गिज़	-5824
्यान्व	-5825
▁शुल्क	-5826
▁$	-5827
amed	-5828
ार्म	-5829
▁मार्च	-5830
▁published	-5831
▁मिट्टी	-5832
▁whoever	-5833
▁Technology	-5834
aka	-5835
▁Pranab	-5836
aà	-5837
▁prayer	-5838
reg	-5839
▁secret	-5840
▁Educ	-5841
▁पहला	-5842
▁meaning	-5843
ici	-5844
▁Chief	-5845
▁जाँच	-5846
ourage	-5847
▁घोषणा	-5848
▁Pur	-5849
▁अनुच्छेद	-5850
▁खास	-5851
▁rain	-5852
▁एल	-5853
▁2007	-5854
▁संत	-5855
bed	-5856
▁भली	-5857
▁मिस	-5858
▁false	-5859
▁ensure	-5860
▁जिसको	-5861
साद	-5862
▁नये	-5863
▁हालाँकि	-5864
▁कार्यान्व	-5865
▁प्रत्यक्ष	-5866
दाता	-5867
▁आंक	-5868
▁लेखक	-5869
▁निशानियाँ	-5870
▁deb	-5871
▁crore	-5872
▁दृष्टिकोण	-5873
▁study	-5874
▁कहेंगे	-5875
de	-5876
▁CO	-5877
mark	-5878
2,	-5879
▁rich	-5880
▁Income	-5881
▁groups	-5882
▁व्यय	-5883
▁subst	-5884
▁60	-5885
▁Account	-5886
ening	-5887
▁सज़ा	-5888
▁परिषद	-5889
'.	-5890
chan	-5891
▁फिल	-5892
▁happy	-5893
que	-5894
▁सॉ	-5895
भूमि	-5896
▁besides	-5897
▁दायित्व	-5898
▁चुनाव	-5899
▁satisf	-5900
्वा	-5901
नु	-5902
▁अस्त	-5903
▁परिवर्त	-5904
इड	-5905
jab	-5906
भाषा	-5907
▁बढ़ावा	-5908
▁values	-5909
itle	-5910
▁बाव	-5911
▁प्	-5912
▁चलते	-5913
▁indic	-5914
▁unbelievers	-5915
▁सरल	-5916
▁Every	-5917
▁Def	-5918
▁physical	-5919
बाहरी	-5920
▁forb	-5921
▁road	-5922
▁details	-5923
▁संस्कृत	-5924
mes	-5925
▁essential	-5926
यण	-5927
▁बीमा	-5928
▁मालिक	-5929
▁especially	-5930
enty	-5931
▁original	-5932
ume	-5933
साब	-5934
▁friends	-5935
▁अफ्री	-5936
ंबई	-5937
▁गवाह	-5938
ilosop	-5939
्वाह	-5940
्यूशन	-5941
▁पंजा	-5942
▁Cons	-5943
▁Net	-5944
▁पाक	-5945
asure	-5946
▁गंभीर	-5947
▁पड़ता	-5948
▁Leg	-5949
▁ग्राह	-5950
फार	-5951
▁फे	-5952
▁opportunity	-5953
RO	-5954
adu	-5955
▁Indust	-5956
▁Child	-5957
▁देखें	-5958
ोने	-5959
band	-5960
▁har	-5961
▁असा	-5962
रिया	-5963
▁ड्र	-5964
▁regular	-5965
▁View	-5966
▁coming	-5967
▁accepted	-5968
फ़ार	-5969
▁सांस्कृतिक	-5970
जीव	-5971
कृष्ट	-5972
▁इनके	-5973
▁attend	-5974
▁univers	-5975
▁wall	-5976
▁कानू	-5977
▁रुपये	-5978
शाला	-5979
▁तर्क	-5980
▁रहें	-5981
▁उपयुक्त	-5982
▁लेता	-5983
oe	-5984
▁Right	-5985
urrection	-5986
▁conscious	-5987
सभा	-5988
fort	-5989
▁अधिस	-5990
▁river	-5991
▁वैश्विक	-5992
▁बौद्ध	-5993
▁आपस	-5994
ites	-5995
अल्लाह	-5996
▁occur	-5997
gar	-5998
▁sens	-5999
ितीय	-6000
▁नसीहत	-6001
▁तकनीकी	-6002
yond	-6003
▁vict	-6004
▁celebr	-6005
▁providing	-6006
▁भूल	-6007
क्षेत्र	-6008
▁dig	-6009
ंचे	-6010
▁वस्तुओं	-6011
ulate	-6012
प्ताह	-6013
दूर	-6014
▁पाए	-6015
▁letter	-6016
दना	-6017
▁copy	-6018
▁lower	-6019
▁पश्चात्	-6020
▁load	-6021
▁बनाकर	-6022
▁Category	-6023
मारी	-6024
▁कार्र	-6025
anation	-6026
▁evidence	-6027
▁concerned	-6028
▁दोष	-6029
▁लोड	-6030
hest	-6031
▁wid	-6032
light	-6033
▁Have	-6034
▁सत्र	-6035
▁Secret	-6036
▁गाय	-6037
▁रोजगार	-6038
ley	-6039
load	-6040
aving	-6041
▁During	-6042
▁caused	-6043
▁सश	-6044
वृत्त	-6045
▁घरों	-6046
▁पात्र	-6047
▁मिलने	-6048
▁increased	-6049
▁अंतरराष्ट्रीय	-6050
▁ste	-6051
▁खुश	-6052
▁प्रतीक	-6053
▁ways	-6054
▁Christ	-6055
▁facilities	-6056
ढ़ी	-6057
▁प्राण	-6058
▁specific	-6059
ख़्श	-6060
▁teach	-6061
▁obt	-6062
▁Under	-6063
▁मस	-6064
▁giving	-6065
8.	-6066
▁wrote	-6067
▁खूब	-6068
do	-6069
▁reached	-6070
▁महिलाओं	-6071
▁क्षेत्रीय	-6072
▁easy	-6073
▁देखो	-6074
▁बनाई	-6075
ration	-6076
ott	-6077
भारत	-6078
नियों	-6079
▁जिनका	-6080
▁becomes	-6081
▁प्रयासों	-6082
▁Fore	-6083
▁stage	-6084
सूस	-6085
abled	-6086
cle	-6087
▁हृदय	-6088
▁International	-6089
ादी	-6090
एँगे	-6091
▁fair	-6092
▁remind	-6093
▁names	-6094
▁4.	-6095
क्ष्म	-6096
▁Will	-6097
▁conv	-6098
▁percent	-6099
¤®	-6100
war	-6101
▁प्रसार	-6102
ATION	-6103
▁बुरी	-6104
▁नियुक्त	-6105
▁साझी	-6106
▁पत्थर	-6107
External	-6108
▁जादू	-6109
▁विनिर्दिष्ट	-6110
मर	-6111
oon	-6112
head	-6113
▁dam	-6114
▁Sign	-6115
".	-6116
▁191	-6117
▁टुक	-6118
▁नाटक	-6119
▁While	-6120
▁प्रभार	-6121
▁Cre	-6122
▁Dist	-6123
▁manifest	-6124
▁Sm	-6125
▁खाद्य	-6126
▁मज़	-6127
▁35	-6128
ुमार	-6129
▁शास्त	-6130
▁व्याख्या	-6131
खर	-6132
िकाओं	-6133
ocation	-6134
▁भय	-6135
▁अनुवाद	-6136
▁possess	-6137
kar	-6138
▁अधिकतर	-6139
aughter	-6140
▁citizens	-6141
att	-6142
▁2013	-6143
▁break	-6144
▁began	-6145
▁कठोर	-6146
▁दिखाया	-6147
▁भरो	-6148
कामना	-6149
▁feed	-6150
▁room	-6151
▁स्वरूप	-6152
▁Hereafter	-6153
ras	-6154
ूंगा	-6155
▁mut	-6156
▁अधिसू	-6157
▁संदे	-6158
▁thereof	-6159
▁prescribed	-6160
▁bill	-6161
प्रिय	-6162
▁दिये	-6163
ूँगा	-6164
▁उत्तम	-6165
▁पद्धति	-6166
▁Service	-6167
oday	-6168
▁morning	-6169
▁programmes	-6170
▁infrastructure	-6171
iting	-6172
▁belongs	-6173
▁शास	-6174
चित्र	-6175
▁अधिकतम	-6176
▁arri	-6177
▁बिजली	-6178
▁instead	-6179
▁विस्तृत	-6180
▁प्लग	-6181
▁expend	-6182
▁measure	-6183
rog	-6184
▁एच	-6185
▁समाचार	-6186
धानी	-6187
▁2006	-6188
▁अनुसू	-6189
mbly	-6190
▁Save	-6191
uction	-6192
▁rather	-6193
9.	-6194
hib	-6195
▁सिस्टम	-6196
▁Officer	-6197
▁खोलें	-6198
ervation	-6199
▁die	-6200
बूल	-6201
▁Fir	-6202
▁व्याव	-6203
▁संस्करण	-6204
▁appear	-6205
▁इजरा	-6206
▁cultural	-6207
▁ज़ु	-6208
▁Krish	-6209
▁कहानी	-6210
▁गुजरा	-6211
▁स्वामी	-6212
-2018	-6213
''	-6214
नर	-6215
▁नियत	-6216
▁unless	-6217
▁March	-6218
ground	-6219
▁सरक	-6220
▁इतनी	-6221
▁वाक़ि	-6222
▁समक्ष	-6223
▁बख्श	-6224
कद	-6225
▁अंध	-6226
▁दीर्	-6227
encies	-6228
▁बावजूद	-6229
व्र	-6230
ober	-6231
▁शक्त	-6232
▁Ge	-6233
▁शिव	-6234
▁मार्गदर्शन	-6235
inn	-6236
▁Expl	-6237
▁Guj	-6238
▁ग्राम	-6239
▁prevent	-6240
▁yourselves	-6241
▁Commissioner	-6242
▁Ma	-6243
▁bird	-6244
▁पार्टी	-6245
▁justice	-6246
▁beyond	-6247
वें	-6248
▁वाता	-6249
▁clean	-6250
▁प्रयुक्त	-6251
▁शुभकामना	-6252
ils	-6253
▁अरब	-6254
▁शेयर	-6255
▁प्रेर	-6256
▁इंज	-6257
्रिया	-6258
▁सीख	-6259
▁क़यामत	-6260
▁आतंकवाद	-6261
▁importance	-6262
▁कटौती	-6263
▁shown	-6264
▁origin	-6265
▁माह	-6266
▁concer	-6267
▁हालांकि	-6268
wh	-6269
oice	-6270
▁coll	-6271
▁comb	-6272
▁central	-6273
बूद	-6274
▁Governor	-6275
.'	-6276
िक्री	-6277
▁bi	-6278
▁बुनिया	-6279
▁मूल्या	-6280
मल	-6281
vest	-6282
▁विनि	-6283
▁Val	-6284
60	-6285
ंटे	-6286
लिंग	-6287
▁त्व	-6288
▁device	-6289
cribe	-6290
▁पश्चिमी	-6291
▁करनेवाला	-6292
raw	-6293
▁chast	-6294
▁फैस	-6295
▁camp	-6296
▁forest	-6297
7.	-6298
▁अनुकूल	-6299
▁निरंतर	-6300
▁Pak	-6301
▁पाय	-6302
▁prim	-6303
▁password	-6304
ection	-6305
▁चिह्न	-6306
▁placed	-6307
▁Sam	-6308
▁prop	-6309
EE	-6310
▁सज	-6311
ुत्व	-6312
▁prior	-6313
▁परस्पर	-6314
▁फाय	-6315
▁sky	-6316
▁stone	-6317
CC	-6318
भाष	-6319
तृत्व	-6320
ॉन	-6321
वहन	-6322
▁disp	-6323
▁विमान	-6324
▁appoint	-6325
▁“%	-6326
resh	-6327
▁मोड	-6328
▁छिपा	-6329
▁languages	-6330
▁Art	-6331
▁Hell	-6332
▁Africa	-6333
abor	-6334
▁returned	-6335
▁song	-6336
▁mere	-6337
▁एफ	-6338
▁responsible	-6339
न्ना	-6340
▁मेल	-6341
▁idea	-6342
▁accounts	-6343
▁स्पष्टीकरण	-6344
र्र	-6345
▁मास	-6346
त्न	-6347
▁bit	-6348
▁fail	-6349
▁दर्शन	-6350
▁रोज़ी	-6351
▁सामना	-6352
▁सम्प	-6353
▁North	-6354
▁खाली	-6355
▁सबको	-6356
▁emerg	-6357
▁takes	-6358
▁fort	-6359
त्‍	-6360
▁डाटा	-6361
▁Director	-6362
दों	-6363
सों	-6364
▁विध	-6365
▁weak	-6366
खिल	-6367
ule	-6368
द्धा	-6369
▁परिस्थित	-6370
▁agreement	-6371
¥	-6372
▁अवै	-6373
▁दीवार	-6374
irm	-6375
▁प्रच	-6376
▁und	-6377
अपनी	-6378
▁answer	-6379
ili	-6380
▁Sim	-6381
sect	-6382
▁Bal	-6383
▁aver	-6384
▁2016	-6385
▁वार्षिक	-6386
known	-6387
▁2014	-6388
▁गहरा	-6389
▁संचार	-6390
▁rivers	-6391
▁default	-6392
)।	-6393
ST	-6394
▁वायदा	-6395
▁मिशन	-6396
▁poin	-6397
elf	-6398
▁हार	-6399
▁lies	-6400
▁Other	-6401
▁inform	-6402
▁गतिविधियों	-6403
30	-6404
▁loan	-6405
▁schol	-6406
▁style	-6407
▁वातावरण	-6408
▁कल्या	-6409
▁मिलकर	-6410
▁पूर्ववर्ष	-6411
▁रेखा	-6412
▁प्रसिद्ध	-6413
8,	-6414
▁विल	-6415
▁Gl	-6416
This	-6417
▁Moh	-6418
omet	-6419
▁सकेगा	-6420
▁हाथों	-6421
बादत	-6422
▁der	-6423
▁आसान	-6424
▁Failed	-6425
▁ऑन	-6426
▁gir	-6427
▁potential	-6428
्ति	-6429
▁यंत्र	-6430
▁मुसलमानों	-6431
india	-6432
▁संलग्न	-6433
▁effective	-6434
▁Centre	-6435
▁सचि	-6436
▁2005	-6437
though	-6438
▁अके	-6439
जिए	-6440
▁bad	-6441
▁जानवर	-6442
वासियों	-6443
▁heaven	-6444
▁heard	-6445
▁खड़ा	-6446
▁contribut	-6447
▁beginning	-6448
पास	-6449
▁अना	-6450
▁coun	-6451
▁राजन	-6452
▁Ac	-6453
▁Of	-6454
ोल्यूशन	-6455
▁बॉ	-6456
▁hor	-6457
▁तला	-6458
▁Plan	-6459
▁चलता	-6460
▁द्वार	-6461
▁govern	-6462
icro	-6463
▁कार्ड	-6464
▁नियमों	-6465
▁Education	-6466
स्वी	-6467
RA	-6468
ट्र	-6469
▁burn	-6470
▁समर्	-6471
▁win	-6472
▁Gang	-6473
नेवालों	-6474
anced	-6475
▁Group	-6476
▁हिन्दू	-6477
▁deg	-6478
ोकन	-6479
▁लिखने	-6480
यत	-6481
िज	-6482
▁setting	-6483
rug	-6484
▁Lib	-6485
▁powers	-6486
▁नियमित	-6487
▁servants	-6488
जु	-6489
EL	-6490
▁Forg	-6491
▁understanding	-6492
inate	-6493
▁टाइ	-6494
▁round	-6495
▁Evolution	-6496
▁spiritual	-6497
दिक	-6498
racy	-6499
ून्य	-6500
▁इत्या	-6501
▁अपराध	-6502
ेंशन	-6503
▁क्लिक	-6504
▁quite	-6505
▁करनेवाले	-6506
▁कर्मचारियों	-6507
▁नामक	-6508
lict	-6509
▁आरो	-6510
▁संपूर्ण	-6511
▁करी	-6512
किस्तान	-6513
▁खी	-6514
▁Scheme	-6515
▁सूक्ष्म	-6516
▁मंज	-6517
भु	-6518
पुट	-6519
▁added	-6520
▁gone	-6521
▁महसूस	-6522
▁अवि	-6523
▁स्वागत	-6524
▁फ़ैस	-6525
▁Quran	-6526
▁contract	-6527
▁existing	-6528
¤¤	-6529
ंकर	-6530
किल	-6531
▁else	-6532
▁connection	-6533
लोड	-6534
▁वेतन	-6535
▁अभिव्य	-6536
ँव	-6537
वाली	-6538
▁हानि	-6539
▁भला	-6540
▁मतलब	-6541
▁ग्रहण	-6542
▁parents	-6543
▁ge	-6544
▁मल	-6545
▁histor	-6546
▁article	-6547
▁Move	-6548
▁अनुमान	-6549
icles	-6550
riage	-6551
haraoh	-6552
▁स्त्री	-6553
▁परीक्षण	-6554
ंखला	-6555
▁unjust	-6556
▁philosop	-6557
टिल	-6558
▁emb	-6559
▁सुझा	-6560
▁रौ	-6561
▁अंड	-6562
▁offer	-6563
▁System	-6564
▁शिकायत	-6565
▁Sup	-6566
▁बंध	-6567
ंका	-6568
▁आंत	-6569
▁treatment	-6570
▁Sa	-6571
▁nar	-6572
▁vision	-6573
▁तमा	-6574
▁simple	-6575
▁स्‍	-6576
▁माँग	-6577
▁सारा	-6578
▁speech	-6579
rem	-6580
iff	-6581
▁Kash	-6582
▁Many	-6583
▁mom	-6584
▁चैन	-6585
▁folk	-6586
▁notice	-6587
▁legal	-6588
ropri	-6589
▁IS	-6590
▁oil	-6591
▁हाँ	-6592
▁obey	-6593
▁अद्य	-6594
standing	-6595
amil	-6596
▁दीन	-6597
▁विश्ले	-6598
ंचाई	-6599
▁पैर	-6600
▁activity	-6601
co	-6602
,"	-6603
हि	-6604
▁सदन	-6605
▁उपचार	-6606
▁अफ्रीका	-6607
ाक	-6608
बरी	-6609
▁कथ	-6610
▁वर	-6611
▁Bar	-6612
▁अस्प	-6613
▁दावा	-6614
▁हरगिज़	-6615
▁झुठलाया	-6616
AME	-6617
▁प्रेष	-6618
].	-6619
▁पंच	-6620
ctors	-6621
raham	-6622
▁सर्वा	-6623
▁कार्रवाई	-6624
▁अवैध	-6625
ताव	-6626
▁lie	-6627
▁देकर	-6628
▁हिसाब	-6629
▁बनाएँ	-6630
▁Pakistan	-6631
▁Author	-6632
▁Research	-6633
▁Unt	-6634
▁bond	-6635
▁fif	-6636
▁ship	-6637
▁स्वच्छ	-6638
▁Air	-6639
▁mot	-6640
▁certificate	-6641
ami	-6642
पों	-6643
▁sn	-6644
▁Out	-6645
▁बाहरी	-6646
oom	-6647
▁पंक्ति	-6648
▁बजा	-6649
▁माता	-6650
▁presented	-6651
टेड	-6652
▁अद	-6653
▁Ser	-6654
▁साम्रा	-6655
▁2001	-6656
▁Gard	-6657
▁अक्सर	-6658
la	-6659
▁youth	-6660
▁इन्हें	-6661
▁टन	-6662
arge	-6663
▁आये	-6664
▁asset	-6665
ressed	-6666
▁excell	-6667
▁मूर्ति	-6668
▁शुभकामनाएं	-6669
▁direction	-6670
▁existence	-6671
▁Dele	-6672
▁week	-6673
▁colle	-6674
▁exerc	-6675
▁भरोसा	-6676
▁favour	-6677
र्त	-6678
▁इबादत	-6679
▁agricultural	-6680
▁black	-6681
ष्क	-6682
▁जाएं	-6683
▁वाह	-6684
▁goes	-6685
▁भौतिक	-6686
▁सूर्य	-6687
▁सहेजें	-6688
▁प्रावधान	-6689
ँति	-6690
▁प्राप्ति	-6691
▁concerning	-6692
ingu	-6693
▁तौबा	-6694
▁कल्याण	-6695
▁परा	-6696
▁मात्र	-6697
ancy	-6698
▁उपय	-6699
▁unit	-6700
▁जीवित	-6701
IR	-6702
▁item	-6703
▁कारबार	-6704
▁kill	-6705
▁strugg	-6706
▁चम	-6707
▁पीठ	-6708
▁जिनकी	-6709
▁दंड	-6710
▁proced	-6711
▁basic	-6712
▁compl	-6713
▁पाठ्य	-6714
▁समस्याओं	-6715
AY	-6716
▁ep	-6717
▁पेज	-6718
▁प्रसन्नता	-6719
▁emp	-6720
▁खाने	-6721
रेट	-6722
▁sle	-6723
ML	-6724
antly	-6725
▁जनवरी	-6726
▁content	-6727
',	-6728
▁Sar	-6729
▁अंतर्राष्ट्रीय	-6730
sy	-6731
nal	-6732
तिहासिक	-6733
▁आयुक्त	-6734
▁कल्पना	-6735
▁खाना	-6736
▁employment	-6737
ING	-6738
▁scale	-6739
▁शख़्श	-6740
▁संकल्प	-6741
\\	-6742
iva	-6743
▁आकर्ष	-6744
▁सुंदर	-6745
▁getting	-6746
▁ris	-6747
▁felt	-6748
▁पत्त	-6749
▁उद	-6750
▁anal	-6751
▁argu	-6752
ंघ	-6753
▁फॉ	-6754
▁knew	-6755
▁ब्रा	-6756
▁बढ़कर	-6757
osition	-6758
▁अनुमो	-6759
▁female	-6760
▁खेती	-6761
▁भेजे	-6762
▁Punjab	-6763
▁wanted	-6764
▁फा	-6765
▁commer	-6766
▁हिस्से	-6767
▁व्यवसाय	-6768
▁addition	-6769
7,	-6770
नांक	-6771
▁running	-6772
▁version	-6773
▁मिलती	-6774
▁parties	-6775
दिन	-6776
lt	-6777
▁virt	-6778
▁warm	-6779
▁क्रा	-6780
▁कितने	-6781
ules	-6782
▁beaut	-6783
▁Therefore	-6784
शब्द	-6785
▁plus	-6786
▁swe	-6787
पान	-6788
▁मौसम	-6789
वट	-6790
▁कथा	-6791
▁pack	-6792
▁houses	-6793
▁उत्स	-6794
▁learning	-6795
धीन	-6796
लाल	-6797
▁fixed	-6798
uls	-6799
▁remove	-6800
▁verses	-6801
▁Resurrection	-6802
body	-6803
TP	-6804
▁ढूं	-6805
▁मानसिक	-6806
road	-6807
▁खुशी	-6808
ze	-6809
▁Sch	-6810
▁माबूद	-6811
▁formed	-6812
rick	-6813
▁poll	-6814
▁collect	-6815
▁भलाई	-6816
▁लगाने	-6817
ulations	-6818
etail	-6819
isement	-6820
▁पुराने	-6821
cember	-6822
▁प्रजा	-6823
न्‍	-6824
बारा	-6825
▁वितरण	-6826
▁परियोजनाओं	-6827
▁cy	-6828
▁Utt	-6829
▁Search	-6830
्वे	-6831
▁बू	-6832
▁Prof	-6833
▁sil	-6834
▁संबो	-6835
▁engine	-6836
▁option	-6837
poration	-6838
▁कार्यक्रमों	-6839
set	-6840
▁born	-6841
▁ज़रुर	-6842
▁assign	-6843
दु	-6844
▁आयोजन	-6845
▁क्षति	-6846
view	-6847
ियार	-6848
▁aspect	-6849
▁तिथि	-6850
Ind	-6851
▁शुरुआ	-6852
ायक	-6853
▁छुट	-6854
▁प्रार्थ	-6855
क्ट्र	-6856
▁aw	-6857
▁mentioned	-6858
▁Why	-6859
▁Trib	-6860
▁{0}	-6861
▁दूध	-6862
पै	-6863
▁tri	-6864
▁नेतृत्व	-6865
▁दस्तावेज	-6866
▁contro	-6867
▁generally	-6868
AB	-6869
▁धो	-6870
▁Kal	-6871
ृंखला	-6872
रार	-6873
▁Ay	-6874
▁जून	-6875
▁1961-2018	-6876
▁hus	-6877
istered	-6878
▁systems	-6879
cer	-6880
चीत	-6881
▁चलो	-6882
Allah	-6883
▁बदलें	-6884
▁जायेगा	-6885
▁गणराज्य	-6886
▁जानी	-6887
▁पंचा	-6888
▁produced	-6889
क्षेप	-6890
▁Enter	-6891
ूर्ति	-6892
▁forces	-6893
rant	-6894
▁चै	-6895
▁मनो	-6896
▁एवोल्यूशन	-6897
▁दोस्त	-6898
▁Cur	-6899
▁कदा	-6900
▁white	-6901
▁विवाद	-6902
▁आइ	-6903
▁धीरे	-6904
▁ब्रह	-6905
▁न्यून	-6906
▁द्र	-6907
▁उसपर	-6908
▁सप्ताह	-6909
▁usually	-6910
▁destroyed	-6911
जू	-6912
oting	-6913
▁plants	-6914
▁बोझ	-6915
लम	-6916
अलग	-6917
▁Dev	-6918
atures	-6919
वान्वेष	-6920
rim	-6921
▁Ved	-6922
▁wise	-6923
▁Chair	-6924
▁ideas	-6925
▁responsibility	-6926
oor	-6927
▁Pri	-6928
▁URL	-6929
where	-6930
▁Today	-6931
▁190	-6932
▁pie	-6933
▁अल्प	-6934
▁novel	-6935
▁sight	-6936
श्म	-6937
porary	-6938
▁limit	-6939
▁ज़ुल्म	-6940
▁;	-6941
वित्र	-6942
▁sold	-6943
▁शत्र	-6944
▁मुद्द	-6945
▁हस्त	-6946
ctober	-6947
▁कितनी	-6948
▁हिंदू	-6949
▁cove	-6950
▁कुफ्	-6951
ाले	-6952
क्षी	-6953
▁immediately	-6954
णु	-6955
▁इत्यादि	-6956
▁practice	-6957
ूबर	-6958
▁sex	-6959
oured	-6960
▁प्ले	-6961
oved	-6962
ength	-6963
▁उड़	-6964
वर्तन	-6965
▁tried	-6966
▁दयाल	-6967
▁यूनि	-6968
▁prosper	-6969
▁associated	-6970
▁2,	-6971
▁निरा	-6972
-19	-6973
त्मिक	-6974
▁Supreme	-6975
लील	-6976
▁ID	-6977
▁note	-6978
▁symb	-6979
वक	-6980
▁mand	-6981
दुनिया	-6982
▁शून्य	-6983
▁अभियान	-6984
▁अनुसरण	-6985
▁उपन्यास	-6986
्यार	-6987
▁units	-6988
▁base	-6989
▁क़सम	-6990
▁कराने	-6991
▁generation	-6992
▁कोड	-6993
▁ख़र्च	-6994
▁wishes	-6995
▁According	-6996
▁directory	-6997
यम	-6998
▁Tem	-6999
▁animals	-7000
▁milit	-7001
▁काफ़िर	-7002
छा	-7003
ियल	-7004
▁safe	-7005
▁निभा	-7006
▁निर्देशिका	-7007
िक़	-7008
▁मूल्यांकन	-7009
▁तट	-7010
▁Program	-7011
▁presence	-7012
ogle	-7013
▁5.	-7014
▁जुड़े	-7015
▁painful	-7016
▁continued	-7017
▁Kashmir	-7018
▁उत्कृष्ट	-7019
ero	-7020
फ्र	-7021
umbai	-7022
▁Legisl	-7023
▁खुले	-7024
text	-7025
▁तकली	-7026
▁statement	-7027
▁ON	-7028
▁मध	-7029
मंडल	-7030
▁आँख	-7031
▁आउट	-7032
▁मुला	-7033
▁dream	-7034
▁active	-7035
▁३	-7036
▁award	-7037
ंता	-7038
▁plug	-7039
▁blind	-7040
▁प्रार्थना	-7041
शक्ति	-7042
▁पत्नी	-7043
fect	-7044
▁लम्	-7045
▁Just	-7046
▁पर्यटन	-7047
पादन	-7048
▁सुख	-7049
णिज्य	-7050
▁अंतरण	-7051
▁opportunities	-7052
▁बजे	-7053
▁Fund	-7054
▁Mark	-7055
▁stor	-7056
▁बनाते	-7057
ofindia	-7058
▁Conf	-7059
ching	-7060
▁पराम	-7061
▁होनी	-7062
▁प्रयोजन	-7063
▁संस्थाओं	-7064
▁banks	-7065
5,	-7066
right	-7067
▁पट्टी	-7068
president	-7069
न्दगी	-7070
▁शुद्ध	-7071
▁Asse	-7072
▁संगण	-7073
▁pict	-7074
▁American	-7075
मीटर	-7076
गण	-7077
▁आनंद	-7078
▁कमांड	-7079
▁poetry	-7080
▁regarding	-7081
▁Pat	-7082
▁fest	-7083
▁बातचीत	-7084
rep	-7085
▁serious	-7086
▁Any	-7087
▁अस्तित्व	-7088
sc	-7089
release	-7090
▁Islamic	-7091
▁correct	-7092
presidentofindia	-7093
omen	-7094
म्मद	-7095
्याग	-7096
िकाना	-7097
▁feet	-7098
▁famous	-7099
▁कर्मचारी	-7100
▁please	-7101
▁विशेषता	-7102
▁गुरु	-7103
▁32	-7104
▁forgiveness	-7105
▁फूल	-7106
▁desp	-7107
▁Yet	-7108
▁डरते	-7109
▁̄	-7110
etic	-7111
▁bow	-7112
क़यामत	-7113
▁cross	-7114
▁anyone	-7115
▁imag	-7116
▁आस्ति	-7117
▁numbers	-7118
▁ऐतिहासिक	-7119
ुप	-7120
▁हद	-7121
▁मिटाएँ	-7122
▁industries	-7123
श्मीर	-7124
▁बेटे	-7125
▁नवान्वेष	-7126
▁revelations	-7127
▁companies	-7128
▁Explanation	-7129
EM	-7130
▁fold	-7131
▁तेरे	-7132
detail	-7133
ovember	-7134
AD	-7135
घाटन	-7136
▁इजरायल	-7137
▁अत्यधिक	-7138
▁प्रेरित	-7139
▁contains	-7140
▁includes	-7141
▁traditional	-7142
▁विद्यार्थियों	-7143
cend	-7144
▁software	-7145
धीश	-7146
rows	-7147
▁पंचांग	-7148
▁medical	-7149
रक	-7150
▁फ़ॉ	-7151
▁walk	-7152
▁Provided	-7153
www	-7154
asa	-7155
▁Sri	-7156
▁max	-7157
▁obl	-7158
▁विद्युत	-7159
ंटी	-7160
arily	-7161
▁concept	-7162
▁particularly	-7163
ूक	-7164
▁War	-7165
▁gold	-7166
▁गंगा	-7167
▁purch	-7168
miss	-7169
▁greet	-7170
adi	-7171
मानी	-7172
▁conce	-7173
▁insect	-7174
▁workers	-7175
▁fra	-7176
▁लक्षण	-7177
▁निशानी	-7178
▁मान्यता	-7179
क्सी	-7180
▁साब	-7181
▁आध्या	-7182
ओगे	-7183
▁गुप्त	-7184
▁assistance	-7185
9,	-7186
▁Wise	-7187
▁मामला	-7188
▁legisl	-7189
▁increasing	-7190
▁इकाई	-7191
▁उदार	-7192
▁circum	-7193
्ठा	-7194
▁code	-7195
▁बुराई	-7196
ोम	-7197
▁गैस	-7198
▁tradition	-7199
फ़र	-7200
ties	-7201
▁प्रारूप	-7202
▁Only	-7203
वीय	-7204
▁IT	-7205
▁तुर	-7206
मान्य	-7207
▁शीर्षक	-7208
▁Wind	-7209
▁मानक	-7210
▁green	-7211
ae	-7212
▁Hy	-7213
▁Shah	-7214
▁शुक्र	-7215
▁स्क्रीन	-7216
▁Mo	-7217
adise	-7218
▁former	-7219
▁supply	-7220
▁fully	-7221
▁मुक़ाब	-7222
▁Address	-7223
▁तेज	-7224
▁बिक्री	-7225
▁संबंधों	-7226
परिक	-7227
▁विवे	-7228
वां	-7229
aksh	-7230
ुस	-7231
▁इकट	-7232
▁आयतें	-7233
▁normal	-7234
▁देखभाल	-7235
ipur	-7236
▁साधन	-7237
राई	-7238
्ता	-7239
▁कक्ष	-7240
▁सौंप	-7241
िश्तों	-7242
▁granted	-7243
▁दुआ	-7244
SL	-7245
▁चारों	-7246
▁बैंकों	-7247
1.	-7248
्वर	-7249
IV	-7250
iter	-7251
▁Red	-7252
▁petition	-7253
▁relevant	-7254
▁बाह	-7255
▁लाया	-7256
▁Start	-7257
▁Tag	-7258
▁फसल	-7259
vious	-7260
ply	-7261
▁Ty	-7262
iers	-7263
▁काव्य	-7264
▁supported	-7265
▁सुबह	-7266
लोग	-7267
▁recommend	-7268
▁successful	-7269
CH	-7270
▁दिला	-7271
▁वादा	-7272
▁select	-7273
▁attempt	-7274
ids	-7275
aches	-7276
▁autom	-7277
▁स्तंभ	-7278
▁format	-7279
▁session	-7280
top	-7281
▁severe	-7282
▁बुनियादी	-7283
▁प्रतिक्रिया	-7284
▁खिलाफ	-7285
▁वाणिज्य	-7286
▁ईमानदारों	-7287
▁accordance	-7288
iet	-7289
▁किसान	-7290
र्ज	-7291
▁CD	-7292
▁इरा	-7293
cutta	-7294
▁प्रोट	-7295
▁moon	-7296
▁पाकिस्तान	-7297
िनी	-7298
▁मछ	-7299
▁Message	-7300
▁limited	-7301
▁प्रभुत्व	-7302
▁scientific	-7303
▁laid	-7304
▁ख़ास	-7305
ternet	-7306
▁लोकप्रिय	-7307
ुमा	-7308
▁टिप	-7309
▁नष्ट	-7310
▁Last	-7311
▁Create	-7312
▁फिल्म	-7313
iling	-7314
ateral	-7315
▁स्थिर	-7316
urt	-7317
▁फ्ल	-7318
icial	-7319
▁team	-7320
▁विरा	-7321
▁निदेशक	-7322
▁विशेषज्ञ	-7323
▁collection	-7324
▁गृह	-7325
▁छूट	-7326
▁मंच	-7327
▁perhaps	-7328
▁transport	-7329
करी	-7330
िक्स	-7331
▁sons	-7332
▁कहता	-7333
▁मानो	-7334
▁spend	-7335
▁हराम	-7336
▁contribution	-7337
ॉकि	-7338
▁करार	-7339
▁Uttar	-7340
▁types	-7341
▁ठिकाना	-7342
आन	-7343
जोर	-7344
▁ago	-7345
izing	-7346
▁adop	-7347
▁police	-7348
▁प्रचार	-7349
rid	-7350
▁आठ	-7351
मार्	-7352
▁गरीब	-7353
संख्या	-7354
▁minister	-7355
लेज	-7356
▁चेह	-7357
▁कुशल	-7358
▁स्थल	-7359
ptember	-7360
ini	-7361
▁Mal	-7362
मात्र	-7363
▁दिनांक	-7364
▁respond	-7365
rav	-7366
asth	-7367
▁broad	-7368
▁worth	-7369
▁लॉग	-7370
▁Truth	-7371
▁final	-7372
▁moment	-7373
▁लोकतंत्र	-7374
▁Tw	-7375
▁समी	-7376
▁repe	-7377
▁किरा	-7378
▁ग़रज़	-7379
▁पुत्र	-7380
▁expenditure	-7381
▁dial	-7382
▁कौशल	-7383
▁serve	-7384
▁भाषण	-7385
▁स्थानों	-7386
▁Tur	-7387
▁apost	-7388
▁Calcutta	-7389
▁agriculture	-7390
▁परहे	-7391
▁distin	-7392
▁फ़ैसला	-7393
▁January	-7394
▁benefits	-7395
lied	-7396
▁target	-7397
▁HT	-7398
▁गोप	-7399
▁विषयों	-7400
▁घरे	-7401
▁husband	-7402
¥	-7403
क्षिक	-7404
▁memory	-7405
In	-7406
RI	-7407
▁inj	-7408
▁अक्ष	-7409
iverse	-7410
▁समस्त	-7411
▁consist	-7412
ानु	-7413
oted	-7414
▁माइ	-7415
▁prin	-7416
ribute	-7417
▁Which	-7418
▁ख्याल	-7419
खिम	-7420
▁announ	-7421
itect	-7422
▁सवाल	-7423
▁रास्ता	-7424
▁लगातार	-7425
ighty	-7426
▁सामर्थ	-7427
▁परहेज़	-7428
cast	-7429
क्रिय	-7430
ellect	-7431
▁पहाड़	-7432
▁उपयोक्ता	-7433
▁आध्यात्मिक	-7434
तुम्ह	-7435
▁expression	-7436
▁आख	-7437
▁Adv	-7438
क्यों	-7439
▁इतने	-7440
▁बरसा	-7441
▁directly	-7442
verse	-7443
▁बनने	-7444
▁सीधा	-7445
▁Tamil	-7446
▁अर्थात्	-7447
aug	-7448
▁सेवाएं	-7449
▁advance	-7450
▁jo	-7451
amental	-7452
▁अद्यतन	-7453
▁अमेरिक	-7454
▁film	-7455
▁Pharaoh	-7456
▁mountains	-7457
ैसे	-7458
uman	-7459
▁कृत	-7460
▁Bang	-7461
▁quick	-7462
▁न्यूनतम	-7463
avi	-7464
apter	-7465
▁strateg	-7466
▁administration	-7467
equ	-7468
कालिक	-7469
▁sufficient	-7470
ole	-7471
▁Lok	-7472
▁नाट	-7473
▁पढ़ने	-7474
▁assets	-7475
▁Ob	-7476
▁सभ	-7477
▁लेन	-7478
▁challeng	-7479
▁प्रोत्साहन	-7480
▁रद्द	-7481
▁ग्रंथ	-7482
dden	-7483
▁अदा	-7484
▁मिश्र	-7485
▁अभिप्रे	-7486
जात	-7487
भेद	-7488
▁cities	-7489
▁attract	-7490
▁changed	-7491
वर्ड	-7492
ays	-7493
▁लु	-7494
▁Sah	-7495
▁medic	-7496
▁looking	-7497
र्वा	-7498
▁(4)	-7499
▁संगठ	-7500
▁villages	-7501
▁Thou	-7502
▁असमर्थ	-7503
▁covered	-7504
▁२००	-7505
▁sacr	-7506
▁Folder	-7507
▁परामर्श	-7508
▁सुल	-7509
ugust	-7510
▁gods	-7511
▁उम्र	-7512
▁दूरी	-7513
▁इंजीन	-7514
▁थोड़ा	-7515
▁middle	-7516
▁पवित्र	-7517
▁पूजा	-7518
▁paper	-7519
▁relationship	-7520
hent	-7521
▁आग्रह	-7522
▁स्त्रियों	-7523
▁नहर	-7524
mp	-7525
विल	-7526
▁साइ	-7527
▁प्रायः	-7528
माने	-7529
▁discip	-7530
▁गुमराही	-7531
▁appropri	-7532
डि	-7533
▁नजर	-7534
▁विरो	-7535
▁separate	-7536
▁विजय	-7537
▁denied	-7538
▁opinion	-7539
▁measures	-7540
▁Mumbai	-7541
▁जहा	-7542
▁phot	-7543
▁संसाधनों	-7544
hab	-7545
icit	-7546
शास्त	-7547
▁travel	-7548
▁forgive	-7549
▁मेहरबान	-7550
obile	-7551
pense	-7552
▁Organ	-7553
▁Port	-7554
▁पारित	-7555
▁relation	-7556
ishn	-7557
व्या	-7558
▁2017	-7559
▁drug	-7560
▁male	-7561
▁कठिना	-7562
inite	-7563
▁2015	-7564
▁laws	-7565
▁hours	-7566
▁एकत्र	-7567
▁गवाही	-7568
▁विनियम	-7569
▁मंड	-7570
▁आंतरिक	-7571
कड़ी	-7572
▁attention	-7573
OP	-7574
▁मज़ा	-7575
ालत	-7576
▁नेहर	-7577
स्तियों	-7578
▁अमरी	-7579
▁speed	-7580
चलित	-7581
▁मिन	-7582
▁अन्तर्	-7583
▁नागरिकों	-7584
▁तभी	-7585
▁2008	-7586
▁inside	-7587
▁repent	-7588
3,	-7589
▁अज	-7590
alty	-7591
▁बेच	-7592
▁उतार	-7593
▁amend	-7594
▁घरेलू	-7595
order	-7596
▁प्रदू	-7597
▁propos	-7598
▁standard	-7599
▁Management	-7600
has	-7601
▁steps	-7602
▁weight	-7603
▁AND	-7604
▁occup	-7605
▁विज्ञ	-7606
ूसु	-7607
▁Bab	-7608
▁ध्वनि	-7609
▁Abraham	-7610
▁calc	-7611
▁promised	-7612
▁महत्त्वपूर्ण	-7613
ालिब	-7614
▁इले	-7615
▁card	-7616
12	-7617
▁हथ	-7618
▁Its	-7619
▁Tax	-7620
▁eye	-7621
▁एका	-7622
▁शाह	-7623
▁faces	-7624
▁sides	-7625
▁भागों	-7626
▁transgress	-7627
▁तीव्र	-7628
▁वृक्ष	-7629
osis	-7630
▁डाउन	-7631
▁script	-7632
▁Children	-7633
▁permission	-7634
▁cooperation	-7635
▁तरीका	-7636
▁मीडिया	-7637
कें	-7638
▁विधे	-7639
▁मुंबई	-7640
रणा	-7641
▁इंग	-7642
▁गीत	-7643
▁fruit	-7644
▁समन्व	-7645
▁Messengers	-7646
from	-7647
▁largest	-7648
ateful	-7649
▁देखकर	-7650
▁opened	-7651
MS	-7652
यू	-7653
▁आज़	-7654
▁highest	-7655
शे	-7656
▁बीज	-7657
▁range	-7658
▁dy	-7659
▁बाँ	-7660
▁officers	-7661
hru	-7662
iment	-7663
▁शुरुआत	-7664
कीम	-7665
▁माप	-7666
▁qual	-7667
▁निपट	-7668
▁रुपए	-7669
oo	-7670
लाद	-7671
▁straight	-7672
▁Forgiving	-7673
▁beautiful	-7674
▁देवी	-7675
sp	-7676
▁Bas	-7677
▁proof	-7678
▁जाएंगे	-7679
▁गल	-7680
िक्र	-7681
It	-7682
▁आदम	-7683
▁milk	-7684
▁Inst	-7685
▁जोखिम	-7686
▁हालॉकि	-7687
णों	-7688
ulpt	-7689
▁Ker	-7690
▁pred	-7691
क़ी	-7692
▁game	-7693
▁युक्त	-7694
▁सर्वे	-7695
▁wills	-7696
▁भागीदारी	-7697
देन	-7698
लाभ	-7699
▁foot	-7700
▁आपूर्ति	-7701
add	-7702
▁esc	-7703
▁length	-7704
OS	-7705
िकल	-7706
▁cam	-7707
▁Copy	-7708
ken	-7709
▁मोमि	-7710
▁block	-7711
▁उद्घाटन	-7712
▁ऑनलाइन	-7713
▁arrange	-7714
▁अभिप्रेत	-7715
hra	-7716
▁San	-7717
▁longer	-7718
▁threat	-7719
▁दयावान	-7720
▁pattern	-7721
yan	-7722
ratic	-7723
भाँति	-7724
▁पूछा	-7725
▁संवर्	-7726
▁stream	-7727
▁twenty	-7728
▁release	-7729
OL	-7730
▁रास्ते	-7731
▁chastisement	-7732
▁परिस्थितियों	-7733
नल	-7734
inent	-7735
▁जल्द	-7736
▁protection	-7737
तल	-7738
▁upd	-7739
▁ख़ुद	-7740
▁भारती	-7741
▁extent	-7742
apan	-7743
▁dram	-7744
▁prot	-7745
▁calendar	-7746
▁कोल	-7747
▁ढूंढ	-7748
▁संचालन	-7749
▁Western	-7750
ज़त	-7751
▁polic	-7752
▁नृत्य	-7753
▁भाषाओं	-7754
▁सर्वोच्च	-7755
▁export	-7756
▁विश्लेषण	-7757
▁connected	-7758
▁taste	-7759
atha	-7760
▁pure	-7761
▁shows	-7762
▁documents	-7763
▁तमाम	-7764
▁performance	-7765
▁joint	-7766
▁someone	-7767
▁Sik	-7768
▁अका	-7769
▁corru	-7770
▁आसानी	-7771
▁academ	-7772
दीय	-7773
▁pan	-7774
▁Form	-7775
▁north	-7776
▁सहकारी	-7777
▁तुझे	-7778
▁बाबत	-7779
▁बदलाव	-7780
▁गुजरात	-7781
UT	-7782
ev	-7783
बन्ध	-7784
board	-7785
▁nations	-7786
arer	-7787
▁Jew	-7788
▁ज्ञापन	-7789
▁दृढ़	-7790
▁deemed	-7791
▁played	-7792
विज्ञान	-7793
▁दूसरों	-7794
▁resident	-7795
शनल	-7796
▁enemy	-7797
▁mechan	-7798
▁90	-7799
सायन	-7800
▁लंबा	-7801
▁सिवाय	-7802
▁appeal	-7803
6,	-7804
icip	-7805
▁December	-7806
▁साम्राज्य	-7807
▁नज़र	-7808
▁लड़के	-7809
▁राज्यपाल	-7810
My	-7811
इश	-7812
▁fre	-7813
▁Char	-7814
▁June	-7815
▁करीब	-7816
▁config	-7817
▁implementation	-7818
डु	-7819
▁गठन	-7820
▁chief	-7821
▁Import	-7822
▁entered	-7823
▁completed	-7824
under	-7825
▁tool	-7826
▁Inter	-7827
▁पुस्तिका	-7828
PS	-7829
▁II	-7830
▁items	-7831
▁स्वतः	-7832
▁mental	-7833
istration	-7834
▁included	-7835
oga	-7836
▁ख़ूब	-7837
▁execut	-7838
▁स्मृति	-7839
▁सामर्थ्य	-7840
▁मई	-7841
▁दयालुता	-7842
▁शिश	-7843
ously	-7844
▁बोले	-7845
▁educational	-7846
्रांस	-7847
▁अगस्त	-7848
▁violence	-7849
▁Well	-7850
leg	-7851
fall	-7852
▁hosp	-7853
▁rupe	-7854
▁sins	-7855
▁प्रि	-7856
▁contain	-7857
4,	-7858
And	-7859
▁पॉ	-7860
▁chann	-7861
▁somet	-7862
▁PM	-7863
▁कानूनी	-7864
ड़ने	-7865
▁Ann	-7866
▁Vis	-7867
▁balance	-7868
▁standing	-7869
▁intellect	-7870
aya	-7871
वियों	-7872
▁rail	-7873
▁height	-7874
▁complex	-7875
▁leading	-7876
▁hyp	-7877
▁2002	-7878
▁लोगो	-7879
▁काफिर	-7880
▁उपयोगी	-7881
भाग्य	-7882
▁दीर्घ	-7883
▁प्रका	-7884
▁Bharat	-7885
महिम	-7886
▁Text	-7887
▁लड़ाई	-7888
▁construction	-7889
hem	-7890
▁सदा	-7891
▁centre	-7892
िस्ट	-7893
▁देखता	-7894
▁मीटर	-7895
▁न्यायाधीश	-7896
pty	-7897
▁Time	-7898
▁घोषित	-7899
▁exceed	-7900
▁knowing	-7901
▁अधिकारों	-7902
▁निर्वाचन	-7903
▁तमिल	-7904
▁doers	-7905
hens	-7906
omin	-7907
क्षीय	-7908
▁offe	-7909
▁फैसला	-7910
ography	-7911
▁sudden	-7912
▁Krishna	-7913
▁दस्तावेज़	-7914
म्स	-7915
▁रजि	-7916
▁लाइ	-7917
▁belief	-7918
न्दी	-7919
▁पढ़ा	-7920
▁किनारे	-7921
▁profess	-7922
▁saved	-7923
▁मैदान	-7924
▁()	-7925
pper	-7926
▁furn	-7927
▁तथ्य	-7928
▁advice	-7929
▁otherwise	-7930
ॉक	-7931
शाह	-7932
▁funds	-7933
ferences	-7934
▁struggle	-7935
द्री	-7936
कर्ताओं	-7937
▁संबोधित	-7938
▁Bill	-7939
▁जरूर	-7940
▁useful	-7941
ilateral	-7942
▁watch	-7943
नन	-7944
ौल	-7945
▁मां	-7946
▁द्वीप	-7947
▁convey	-7948
▁Gujarat	-7949
▁species	-7950
▁औष	-7951
▁Post	-7952
▁कॉन्	-7953
ifying	-7954
▁वाद्य	-7955
▁काग	-7956
▁पशु	-7957
▁south	-7958
▁democracy	-7959
▁प्राथमिकता	-7960
▁आश्च	-7961
▁चेतना	-7962
ीनी	-7963
▁Ah	-7964
▁कलक	-7965
▁जितना	-7966
▁emph	-7967
▁rank	-7968
▁चलने	-7969
▁अज्ञात	-7970
utes	-7971
He	-7972
asc	-7973
शेष	-7974
▁util	-7975
▁रीति	-7976
▁ग़ालिब	-7977
▁Agricult	-7978
▁नक़	-7979
▁फोन	-7980
▁वैध	-7981
▁ton	-7982
धित्व	-7983
pir	-7984
▁छह	-7985
rene	-7986
▁115	-7987
▁labour	-7988
▁विन्यास	-7989
xy	-7990
वंश	-7991
▁̄à	-7992
▁Home	-7993
▁ज़ाह	-7994
▁Google	-7995
▁Policy	-7996
▁apprec	-7997
▁sister	-7998
▁सूर	-7999
▁मुना	-8000
▁Assist	-8001
▁journey	-8002
pted	-8003
फारिश	-8004
भाषित	-8005
▁dwell	-8006
gy	-8007
▁नु	-8008
संगत	-8009
icated	-8010
▁समृद्ध	-8011
▁उत्पादों	-8012
▁लिखी	-8013
▁ready	-8014
▁करेगी	-8015
▁हिंदी	-8016
:-	-8017
घात	-8018
फ़ा	-8019
▁focus	-8020
▁Indians	-8021
आप	-8022
िव	-8023
▁गुज़र	-8024
दत्त	-8025
▁कर्त	-8026
▁Pra	-8027
▁results	-8028
ula	-8029
मिन	-8030
▁cry	-8031
▁संवाद	-8032
गोल	-8033
▁Dh	-8034
▁First	-8035
ंदी	-8036
यदि	-8037
▁operations	-8038
ऊँ	-8039
rate	-8040
▁Aud	-8041
▁Image	-8042
▁महामहिम	-8043
दित	-8044
erous	-8045
▁जटिल	-8046
▁minus	-8047
▁आक्रमण	-8048
pro	-8049
परीत	-8050
▁ख्वाह	-8051
षक	-8052
▁एकल	-8053
tered	-8054
▁Langu	-8055
▁अन्दर	-8056
▁उठाने	-8057
▁ST	-8058
ैर्य	-8059
▁यून	-8060
▁stock	-8061
▁बीमारी	-8062
▁Finance	-8063
▁pursu	-8064
▁उपबंधों	-8065
▁employees	-8066
▁तस	-8067
▁अनुरूप	-8068
▁क़ि	-8069
▁निरी	-8070
▁बजाय	-8071
▁frame	-8072
▁Unable	-8073
बाइल	-8074
▁संकट	-8075
▁जाओगे	-8076
▁functions	-8077
▁01	-8078
▁ताप	-8079
▁होंगी	-8080
▁Sal	-8081
▁dece	-8082
▁औरतों	-8083
▁नेहरू	-8084
▁stories	-8085
▁Inc	-8086
▁Pass	-8087
▁लाइन	-8088
▁drive	-8089
▁नैतिक	-8090
▁अनुरोध	-8091
▁परिणामस्वरूप	-8092
▁UN	-8093
▁Sol	-8094
▁खुला	-8095
▁named	-8096
▁सरदार	-8097
▁pleasure	-8098
र्रर	-8099
.2014	-8100
▁Back	-8101
▁Bomb	-8102
▁कृष्ण	-8103
▁recent	-8104
▁unique	-8105
onse	-8106
▁rise	-8107
▁विपरीत	-8108
▁imper	-8109
▁सिफारिश	-8110
▁तार	-8111
▁मौत	-8112
▁October	-8113
▁fathers	-8114
▁उतर	-8115
▁जंग	-8116
लोगों	-8117
▁बीमार	-8118
▁बुद्ध	-8119
▁अध्याय	-8120
▁located	-8121
▁circumst	-8122
▁झा	-8123
▁क़ा	-8124
rance	-8125
▁साबित	-8126
stituted	-8127
कारात्मक	-8128
Com	-8129
वली	-8130
athy	-8131
▁हिम	-8132
▁wood	-8133
▁grace	-8134
कालय	-8135
▁Law	-8136
ensive	-8137
If	-8138
वाना	-8139
enced	-8140
▁hour	-8141
▁आनन्द	-8142
▁प्रतिनिधित्व	-8143
▁hot	-8144
▁लेंगे	-8145
▁आश्चर्य	-8146
AM	-8147
box	-8148
▁cou	-8149
▁वचन	-8150
▁मैने	-8151
▁बन्दगी	-8152
▁domestic	-8153
▁मुक़ाबले	-8154
▁suc	-8155
▁site	-8156
ashtra	-8157
▁विद्यमान	-8158
▁commercial	-8159
▁significant	-8160
रस	-8161
मेन	-8162
▁tal	-8163
▁त्याग	-8164
▁सॉफ्ट	-8165
▁यक़ीनी	-8166
ask	-8167
▁चीन	-8168
▁Power	-8169
ंजन	-8170
▁heavy	-8171
▁पोर्ट	-8172
▁वर्षा	-8173
▁Script	-8174
▁territ	-8175
▁revolution	-8176
धक	-8177
ipt	-8178
osing	-8179
▁चक्र	-8180
▁पृथ्वी	-8181
▁कूटशब्द	-8182
▁क़ु	-8183
▁situ	-8184
▁एकता	-8185
▁समझौता	-8186
▁प्रकाशन	-8187
▁सरकारों	-8188
▁सर्वाधिक	-8189
ops	-8190
▁दवा	-8191
▁2012	-8192
▁चीज़ों	-8193
▁growing	-8194
▁schemes	-8195
्राफ	-8196
▁पलट	-8197
▁table	-8198
▁कितना	-8199
▁नूह	-8200
▁दरवा	-8201
▁आरम्भ	-8202
▁प्रतीत	-8203
फ़्र	-8204
▁एंड	-8205
▁पंजाब	-8206
▁प्रशंसा	-8207
▁mighty	-8208
▁secure	-8209
▁जनसंख्या	-8210
लेट	-8211
शासन	-8212
▁लौटा	-8213
▁प्रतिभा	-8214
What	-8215
▁Hist	-8216
▁फ़िर	-8217
▁जिनको	-8218
▁Ur	-8219
त्तम	-8220
▁शारी	-8221
atically	-8222
▁gardens	-8223
▁storage	-8224
▁consideration	-8225
0.	-8226
▁More	-8227
दरत	-8228
lication	-8229
raft	-8230
▁नेक	-8231
▁perman	-8232
▁Assembly	-8233
ET	-8234
बीर	-8235
uled	-8236
ighb	-8237
▁189	-8238
▁rock	-8239
▁दर्ज	-8240
▁apart	-8241
▁valid	-8242
▁भेद	-8243
▁अक्षम	-8244
▁सर्वेक्षण	-8245
You	-8246
▁हल्	-8247
ao	-8248
▁Science	-8249
prh	-8250
▁सिखा	-8251
▁आवाज़	-8252
▁प्रिय	-8253
▁जमीन	-8254
▁जाकर	-8255
▁facilit	-8256
▁marriage	-8257
▁1999	-8258
▁thir	-8259
▁समाप्ति	-8260
▁vac	-8261
▁करवा	-8262
▁खुली	-8263
▁stated	-8264
▁75	-8265
▁कोवि	-8266
▁वहीं	-8267
▁trees	-8268
▁Contact	-8269
▁डाले	-8270
▁Nehru	-8271
▁leaves	-8272
▁पहुँचे	-8273
▁पूर्वा	-8274
गढ़	-8275
वायु	-8276
▁परम	-8277
▁staff	-8278
▁Remove	-8279
▁उपक्रम	-8280
▁ज़िम्मे	-8281
ray	-8282
▁उठाए	-8283
▁adopted	-8284
जिस	-8285
roud	-8286
▁ब्ल	-8287
odies	-8288
▁join	-8289
▁अस्थ	-8290
▁SAW	-8291
ruary	-8292
त्कार	-8293
▁आज्ञा	-8294
▁आओ	-8295
▁188	-8296
▁mid	-8297
▁वैसे	-8298
▁अस्था	-8299
▁धैर्य	-8300
▁दशक	-8301
▁resol	-8302
▁पूर्वी	-8303
▁हैंः	-8304
iled	-8305
aters	-8306
▁राजनैतिक	-8307
itled	-8308
▁इन्कार	-8309
▁संगठनों	-8310
▁technical	-8311
inery	-8312
umber	-8313
▁उधार	-8314
▁पसन्द	-8315
▁Delete	-8316
▁मुझसे	-8317
▁Excell	-8318
▁प्राधिकारी	-8319
▁नबी	-8320
▁prec	-8321
ebruary	-8322
▁leader	-8323
▁committed	-8324
▁पाई	-8325
▁आवास	-8326
▁सच्चा	-8327
▁सशक्त	-8328
▁divided	-8329
▁contained	-8330
पथ	-8331
aker	-8332
lex	-8333
resp	-8334
▁दाह	-8335
▁temper	-8336
▁जय	-8337
▁टा	-8338
▁media	-8339
▁involved	-8340
iry	-8341
लीय	-8342
lands	-8343
▁पंजीकरण	-8344
▁Path	-8345
▁Office	-8346
ंठ	-8347
ora	-8348
▁gain	-8349
▁events	-8350
अर	-8351
▁powerful	-8352
cause	-8353
▁helped	-8354
ज़ल	-8355
▁entry	-8356
▁depart	-8357
▁अर्थात	-8358
▁engaged	-8359
▁उद्योगों	-8360
▁काफ़ी	-8361
▁Bombay	-8362
▁figure	-8363
▁Secretary	-8364
▁September	-8365
ूदी	-8366
osen	-8367
▁model	-8368
▁उत्सा	-8369
▁निकाय	-8370
▁temples	-8371
▁appropriate	-8372
▁शिकार	-8373
▁declared	-8374
▁ऑफ़	-8375
▁cells	-8376
▁पाते	-8377
▁साफ़	-8378
▁disob	-8379
▁symbol	-8380
▁प्रतीक्षा	-8381
▁कार्यान्वयन	-8382
प्रति	-8383
यो	-8384
ktop	-8385
▁portion	-8386
कभी	-8387
▁अत	-8388
▁2020	-8389
▁famil	-8390
▁consult	-8391
▁उपभोक्ता	-8392
वित	-8393
ष्‍	-8394
▁शहरी	-8395
▁exists	-8396
▁payable	-8397
▁शारीरिक	-8398
▁लिखित	-8399
▁प्रेरणा	-8400
adh	-8401
ष्टा	-8402
▁अहम	-8403
▁fields	-8404
प्ति	-8405
▁जागर	-8406
▁column	-8407
▁praise	-8408
▁अधिसूचना	-8409
▁पड़ी	-8410
▁सृजन	-8411
▁औसत	-8412
▁Head	-8413
▁किलो	-8414
▁चुने	-8415
▁sculpt	-8416
▁November	-8417
▁प्ल	-8418
▁मुश्	-8419
▁registered	-8420
ga	-8421
▁6.	-8422
▁मुद्र	-8423
▁consequ	-8424
▁Edit	-8425
▁निगर	-8426
▁निहित	-8427
fection	-8428
▁causes	-8429
▁questions	-8430
aran	-8431
ंडी	-8432
धों	-8433
▁धु	-8434
▁बाग	-8435
▁emphas	-8436
▁architect	-8437
अत	-8438
itch	-8439
▁मुद्दों	-8440
rust	-8441
▁promote	-8442
▁policies	-8443
अमत	-8444
▁amongst	-8445
▁thinking	-8446
▁Bus	-8447
▁won	-8448
▁Over	-8449
▁Pand	-8450
▁track	-8451
▁किस्म	-8452
▁divine	-8453
ications	-8454
▁military	-8455
1,	-8456
ps	-8457
ests	-8458
▁इलेक्ट्र	-8459
▁Nep	-8460
▁टीम	-8461
▁hearing	-8462
▁processing	-8463
इल	-8464
▁गौर	-8465
▁cloud	-8466
▁neighb	-8467
▁तल	-8468
▁सजा	-8469
ented	-8470
▁Nath	-8471
▁उठाया	-8472
▁fruits	-8473
▁officer	-8474
▁reading	-8475
▁reference	-8476
▁औलाद	-8477
▁prostr	-8478
▁नमू	-8479
▁email	-8480
▁सुभाष	-8481
▁सन्तान	-8482
▁extreme	-8483
▁developing	-8484
▁profit	-8485
▁review	-8486
▁पाठ्यक्रम	-8487
AC	-8488
ंगिक	-8489
▁डाय	-8490
▁withd	-8491
▁उच्चतम	-8492
▁सुविधाओं	-8493
▁टेली	-8494
▁तूने	-8495
▁परेश	-8496
▁यूसु	-8497
▁अमेरिकी	-8498
रात	-8499
▁Stand	-8500
▁शैक्षिक	-8501
सायिक	-8502
▁capt	-8503
ुस्तान	-8504
▁जिनसे	-8505
▁deduction	-8506
जब	-8507
श्रम	-8508
▁seed	-8509
▁animal	-8510
▁चुनौती	-8511
थे	-8512
्लो	-8513
ounty	-8514
▁shape	-8515
lly	-8516
pid	-8517
like	-8518
▁साथी	-8519
▁web	-8520
▁Enable	-8521
arma	-8522
cher	-8523
rehens	-8524
▁Satan	-8525
▁डाउनलोड	-8526
▁Po	-8527
rain	-8528
▁सहज	-8529
▁सिक्	-8530
पालिका	-8531
▁China	-8532
▁families	-8533
race	-8534
▁घटा	-8535
▁magn	-8536
▁lines	-8537
▁lived	-8538
स्तिष्क	-8539
▁shares	-8540
▁आंख	-8541
थी	-8542
▁तकनीक	-8543
▁Exchange	-8544
▁earn	-8545
▁मिनट	-8546
▁हत्या	-8547
▁images	-8548
▁परिवहन	-8549
समय	-8550
▁आबाद	-8551
-0	-8552
▁pil	-8553
▁मस्	-8554
▁external	-8555
चारिक	-8556
▁miss	-8557
▁घंटे	-8558
▁veget	-8559
▁प्रोत्साहित	-8560
ड़ते	-8561
▁सड़क	-8562
▁tid	-8563
▁summ	-8564
▁succeed	-8565
▁influence	-8566
कीन	-8567
▁आश	-8568
inet	-8569
▁जनजा	-8570
▁श्रम	-8571
▁श्रृंखला	-8572
▁फें	-8573
assion	-8574
Mu	-8575
▁Car	-8576
▁Nay	-8577
▁box	-8578
▁गणना	-8579
▁सेटिंग	-8580
sec	-8581
दास	-8582
▁नयी	-8583
▁seem	-8584
▁choose	-8585
▁आकर	-8586
▁देर	-8587
▁सराह	-8588
iences	-8589
▁पेंशन	-8590
▁expressed	-8591
संस्	-8592
▁gather	-8593
▁needed	-8594
▁sometimes	-8595
▁nuc	-8596
▁ईमानदार	-8597
ti	-8598
कुछ	-8599
▁AT	-8600
▁fit	-8601
▁incl	-8602
▁हमसे	-8603
▁refuge	-8604
▁square	-8605
▁messengers	-8606
▁gar	-8607
▁आना	-8608
▁पति	-8609
▁अगला	-8610
▁attach	-8611
▁circumstances	-8612
asons	-8613
क्ष्य	-8614
्यवाद	-8615
▁कहाँ	-8616
▁कार्यवाही	-8617
ेंज	-8618
शीलता	-8619
▁input	-8620
▁likely	-8621
▁छात्रों	-8622
▁standards	-8623
क़्त	-8624
▁छाप	-8625
▁Check	-8626
▁touch	-8627
▁interests	-8628
▁स्ना	-8629
▁जैव	-8630
▁सें	-8631
▁excl	-8632
▁seems	-8633
▁पूज्य	-8634
▁बिहार	-8635
▁अन्यथा	-8636
▁निगरानी	-8637
aging	-8638
▁desires	-8639
▁remained	-8640
aja	-8641
▁कब	-8642
▁response	-8643
▁क़ुरान	-8644
▁Paradise	-8645
uff	-8646
दंड	-8647
▁waste	-8648
तीत	-8649
▁समीक्षा	-8650
▁Description	-8651
ought	-8652
▁magic	-8653
▁रेलवे	-8654
▁ज़िन्दगी	-8655
enge	-8656
क़रीब	-8657
▁Unto	-8658
▁घड़ी	-8659
▁Gandhiji	-8660
▁परिवर्तित	-8661
▁Her	-8662
▁बहुते	-8663
▁expand	-8664
ESS	-8665
केट	-8666
shipp	-8667
▁dated	-8668
▁August	-8669
▁compon	-8670
ंदन	-8671
▁Bihar	-8672
▁dance	-8673
▁raise	-8674
▁बदलने	-8675
ression	-8676
▁terrorism	-8677
ंदु	-8678
▁wel	-8679
▁refers	-8680
र्ती	-8681
ैनिक	-8682
icate	-8683
▁pric	-8684
▁ignor	-8685
▁समर्पित	-8686
▁wo	-8687
▁आलो	-8688
गारों	-8689
▁ball	-8690
▁फिरऔन	-8691
▁master	-8692
▁remains	-8693
lies	-8694
▁कनेक्शन	-8695
▁संयंत्र	-8696
▁केरल	-8697
▁रहमत	-8698
▁extra	-8699
AG	-8700
न्ड	-8701
grat	-8702
▁truly	-8703
▁variety	-8704
▁location	-8705
टेन	-8706
▁सै	-8707
lying	-8708
ुक्ति	-8709
▁जिले	-8710
▁इंटरनेट	-8711
▁कलकत्ता	-8712
▁Kerala	-8713
▁विधेयक	-8714
न्द्रनाथ	-8715
▁consciousness	-8716
िड	-8717
▁taught	-8718
▁विरोधी	-8719
▁Comment	-8720
▁fill	-8721
▁लिंक	-8722
▁additional	-8723
▁constitution	-8724
टो	-8725
▁fish	-8726
▁quar	-8727
▁profession	-8728
reprene	-8729
▁मिलेगा	-8730
aur	-8731
nes	-8732
unk	-8733
llig	-8734
rated	-8735
▁interp	-8736
▁average	-8737
atma	-8738
ंपरिक	-8739
▁sort	-8740
▁नवीन	-8741
▁लगते	-8742
▁graph	-8743
▁स्मार	-8744
▁ज़ाहिर	-8745
▁rejected	-8746
ेरत	-8747
▁कहान	-8748
▁killed	-8749
▁extended	-8750
▁तस्वी	-8751
▁enable	-8752
▁महाराष्ट्र	-8753
▁Roy	-8754
▁इसको	-8755
▁धारण	-8756
▁trial	-8757
▁egg	-8758
▁शिखर	-8759
▁उत्तरा	-8760
चानक	-8761
▁अकबर	-8762
▁remark	-8763
Muhammad	-8764
▁worshipp	-8765
▁चालू	-8766
▁लाते	-8767
▁सचिव	-8768
▁Ear	-8769
▁नुक	-8770
▁नक़ल	-8771
▁Knowing	-8772
▁एड	-8773
▁elements	-8774
▁Web	-8775
▁calls	-8776
ading	-8777
olute	-8778
▁School	-8779
▁Nar	-8780
oming	-8781
ube	-8782
iance	-8783
▁mouth	-8784
▁Palest	-8785
▁Chairman	-8786
▁चो	-8787
▁sup	-8788
▁surface	-8789
usive	-8790
▁सुदृ	-8791
▁levels	-8792
▁अनुपात	-8793
▁Conference	-8794
▁3,	-8795
unal	-8796
▁सचे	-8797
▁Also	-8798
▁आसपास	-8799
▁समग्र	-8800
▁होम	-8801
▁रौशन	-8802
▁wives	-8803
▁chosen	-8804
DE	-8805
वधि	-8806
▁जेल	-8807
▁तथापि	-8808
▁मुक़र्रर	-8809
uous	-8810
्यूट	-8811
▁Ret	-8812
▁तिर	-8813
mical	-8814
मार्ग	-8815
▁Corporation	-8816
▁partnership	-8817
▁Att	-8818
▁saf	-8819
▁देय	-8820
icked	-8821
▁जरिए	-8822
▁trying	-8823
▁प्रारंभिक	-8824
▁आर्	-8825
uel	-8826
ंटर	-8827
▁Di	-8828
कारा	-8829
utions	-8830
▁proud	-8831
▁maintain	-8832
▁2019	-8833
▁lack	-8834
▁क़ाय	-8835
▁store	-8836
▁सूत्र	-8837
मियान	-8838
▁voice	-8839
asthan	-8840
▁print	-8841
▁Fil	-8842
▁perfect	-8843
▁पृष्ठभूमि	-8844
▁“”	-8845
lick	-8846
▁Germ	-8847
▁July	-8848
▁inaug	-8849
▁भेजें	-8850
▁मिसाल	-8851
▁सॉफ्टवेयर	-8852
aji	-8853
▁Inf	-8854
▁उपा	-8855
▁शहरों	-8856
▁advant	-8857
जल	-8858
▁गुफा	-8859
▁अचानक	-8860
▁evening	-8861
▁sectors	-8862
।-	-8863
”.	-8864
नाह	-8865
▁cash	-8866
▁poly	-8867
▁Great	-8868
▁Japan	-8869
▁distribution	-8870
ja	-8871
▁cop	-8872
▁शरीक	-8873
▁हवाई	-8874
▁earned	-8875
▁medium	-8876
▁श्रेष्ठ	-8877
▁whosoever	-8878
मेट	-8879
▁बग	-8880
▁”-	-8881
▁टैग	-8882
▁बटन	-8883
hered	-8884
▁इनका	-8885
▁plain	-8886
वण	-8887
{0}	-8888
ढ़ा	-8889
▁joy	-8890
▁skin	-8891
▁machine	-8892
▁मूल्यों	-8893
ाये	-8894
aign	-8895
▁सुझाव	-8896
▁series	-8897
▁जलवायु	-8898
isc	-8899
▁unf	-8900
iring	-8901
▁हार्	-8902
▁जुलाई	-8903
▁settle	-8904
anges	-8905
atter	-8906
erative	-8907
▁महात्मा	-8908
▁described	-8909
.%	-8910
▁कदापि	-8911
▁brings	-8912
ष्ठा	-8913
ड़ियों	-8914
▁निष्क्रिय	-8915
▁difference	-8916
▁IP	-8917
▁गोल	-8918
लैंड	-8919
▁गें	-8920
▁Inte	-8921
▁root	-8922
▁अभिय	-8923
▁avoid	-8924
▁500	-8925
uries	-8926
▁खींच	-8927
▁Buddh	-8928
▁विभाजन	-8929
▁36	-8930
▁कीट	-8931
चालित	-8932
▁Soci	-8933
▁dang	-8934
▁Turk	-8935
▁worked	-8936
▁प्रयत्न	-8937
▁distance	-8938
प्राप्त	-8939
ोबार	-8940
▁prem	-8941
▁मोबाइल	-8942
▁construct	-8943
पार	-8944
▁gets	-8945
▁quant	-8946
actions	-8947
▁larger	-8948
For	-8949
मतौर	-8950
▁मुश	-8951
▁शोध	-8952
▁reflect	-8953
▁अभिव्यक्ति	-8954
▁शौ	-8955
▁लंबे	-8956
▁रोकने	-8957
▁दरमियान	-8958
▁diss	-8959
▁crops	-8960
40	-8961
idy	-8962
मोह	-8963
▁7.	-8964
▁Det	-8965
▁Pan	-8966
▁Maharashtra	-8967
▁independence	-8968
ोजी	-8969
▁hell	-8970
▁mutual	-8971
▁output	-8972
▁प्राधिकरण	-8973
शुदा	-8974
▁risk	-8975
▁इसने	-8976
▁Elect	-8977
▁परमाण	-8978
भ्र	-8979
cript	-8980
▁Free	-8981
▁expected	-8982
▁मं	-8983
ंत्रिक	-8984
▁opening	-8985
▁observed	-8986
apt	-8987
ague	-8988
UN	-8989
रत	-8990
abh	-8991
गामी	-8992
विधि	-8993
▁नाथ	-8994
▁Bhag	-8995
▁सजदा	-8996
▁abroad	-8997
▁forget	-8998
ेय	-8999
ॉट	-9000
▁Som	-9001
▁unc	-9002
eties	-9003
▁died	-9004
▁cultiv	-9005
▁element	-9006
▁द्वितीय	-9007
▁Guru	-9008
ivered	-9009
▁ग्राहक	-9010
▁नेताओं	-9011
▁विश्वविद्यालयों	-9012
▁af	-9013
ियामत	-9014
▁घाटे	-9015
ousing	-9016
▁poems	-9017
▁cattle	-9018
▁associate	-9019
overy	-9020
▁करोगे	-9021
▁चिंता	-9022
▁teachers	-9023
▁applications	-9024
कां	-9025
नाश	-9026
▁निच	-9027
▁borrow	-9028
▁online	-9029
▁विशेषकर	-9030
एच	-9031
ायी	-9032
nded	-9033
▁सिल	-9034
ifice	-9035
▁इकट्ठा	-9036
▁पारंपरिक	-9037
▁objective	-9038
olid	-9039
▁Sum	-9040
aling	-9041
▁dust	-9042
▁मर्द	-9043
▁मांस	-9044
▁stead	-9045
▁योजनाओं	-9046
▁Pres	-9047
शास्त्र	-9048
▁रसूलों	-9049
▁clearly	-9050
▁brothers	-9051
6)	-9052
ocal	-9053
▁sleep	-9054
▁फ़ॉन्ट	-9055
▁युक्ति	-9056
▁truthful	-9057
म्मत	-9058
▁fine	-9059
▁पेड़	-9060
▁चलाने	-9061
▁looked	-9062
▁cat	-9063
▁sale	-9064
icense	-9065
▁ज्ञात	-9066
▁Had	-9067
क्रिप	-9068
▁Hindus	-9069
▁अनुदान	-9070
▁समर्थित	-9071
ception	-9072
▁पुरानी	-9073
▁launched	-9074
▁प्रतिनिधि	-9075
▁औऱ	-9076
pped	-9077
▁शान	-9078
▁remem	-9079
▁tidings	-9080
▁friendly	-9081
▁क्षमाशील	-9082
ius	-9083
▁चुनौ	-9084
▁defined	-9085
▁मुलाकात	-9086
▁मुश्किल	-9087
▁association	-9088
Our	-9089
िकेट	-9090
ूर्ण	-9091
▁Madh	-9092
▁नुकसान	-9093
▁Mission	-9094
▁आकर्षित	-9095
▁ज़्यादा	-9096
▁determined	-9097
ught	-9098
▁साझा	-9099
▁annual	-9100
▁European	-9101
▁messenger	-9102
▁सफ	-9103
▁मौल	-9104
▁listen	-9105
▁Services	-9106
▁introduced	-9107
iny	-9108
ller	-9109
न्या	-9110
▁उक्त	-9111
▁hidden	-9112
द्वीप	-9113
▁screen	-9114
▁org	-9115
▁pill	-9116
▁कामना	-9117
▁राजनीति	-9118
▁exercise	-9119
▁context	-9120
▁कंपनियों	-9121
▁Nob	-9122
▁आराम	-9123
▁removed	-9124
▁independent	-9125
क्रो	-9126
▁आमतौर	-9127
▁अनक़रीब	-9128
▁characters	-9129
80	-9130
VD	-9131
ahar	-9132
onal	-9133
लिया	-9134
प्रदाय	-9135
▁दाखिल	-9136
▁wisdom	-9137
▁घटनाओं	-9138
▁जोड़ने	-9139
ंतरण	-9140
▁Men	-9141
▁rare	-9142
ठे	-9143
▁खान	-9144
▁Stat	-9145
▁fellow	-9146
▁honour	-9147
▁km	-9148
▁जर्म	-9149
▁कम्पनी	-9150
▁बिलकुल	-9151
▁नियंत्रित	-9152
▁GN	-9153
teen	-9154
बानी	-9155
▁देखे	-9156
▁deliver	-9157
▁majority	-9158
Is	-9159
▁संदेह	-9160
▁button	-9161
▁वाक़िफ	-9162
▁February	-9163
▁Emp	-9164
▁भंडारण	-9165
▁प्रविष्ट	-9166
▁नस्	-9167
eting	-9168
तावनी	-9169
▁अपमान	-9170
amet	-9171
▁Change	-9172
▁academic	-9173
▁लै	-9174
▁rupees	-9175
▁जड़	-9176
verty	-9177
▁Iran	-9178
istics	-9179
▁burden	-9180
▁remote	-9181
मै	-9182
▁लकड़ी	-9183
▁दिखाता	-9184
▁Because	-9185
क़ा	-9186
▁Gh	-9187
▁औप	-9188
▁vast	-9189
▁नंबर	-9190
ologies	-9191
▁सुदृढ़	-9192
ंसी	-9193
itis	-9194
▁glad	-9195
▁कराया	-9196
▁चन्द्र	-9197
▁Ke	-9198
▁safety	-9199
▁अवज्ञा	-9200
▁poverty	-9201
मण	-9202
▁इनकी	-9203
▁ईमेल	-9204
▁आमंत्र	-9205
▁convers	-9206
▁spent	-9207
▁Tagore	-9208
▁affairs	-9209
nel	-9210
साफ़	-9211
▁समित	-9212
▁throughout	-9213
Sh	-9214
▁hel	-9215
▁opt	-9216
▁grad	-9217
▁समावेश	-9218
▁literary	-9219
oms	-9220
▁Kum	-9221
भाविक	-9222
▁कमजोर	-9223
▁फरवरी	-9224
▁Network	-9225
▁maximum	-9226
▁station	-9227
मती	-9228
▁सब्र	-9229
▁Chandra	-9230
▁initial	-9231
▁प्रशासनिक	-9232
िटी	-9233
▁Did	-9234
▁नाग	-9235
▁beauty	-9236
▁उत्तरी	-9237
▁बख्शने	-9238
▁electric	-9239
▁तत्वदर्शी	-9240
ज्ज	-9241
▁आफ	-9242
कर्ष	-9243
▁songs	-9244
▁submit	-9245
▁procedure	-9246
दायी	-9247
आख़िर	-9248
▁मुद्	-9249
▁homes	-9250
▁नेअमत	-9251
▁संविदा	-9252
▁कुफ्फ़ार	-9253
▁मस्तिष्क	-9254
▁delivered	-9255
ysis	-9256
▁Nav	-9257
alted	-9258
▁army	-9259
▁पट्ट	-9260
▁मध्यम	-9261
▁easily	-9262
▁चेतावनी	-9263
▁ourselves	-9264
ुरान	-9265
ूंकि	-9266
▁Ant	-9267
ार्थी	-9268
▁impact	-9269
ux	-9270
ोटो	-9271
▁goal	-9272
▁दुखद	-9273
▁मुकद	-9274
▁surround	-9275
खो	-9276
apers	-9277
▁काला	-9278
▁ideal	-9279
oj	-9280
ARD	-9281
ॉल्ट	-9282
▁Sir	-9283
▁gas	-9284
▁संसदीय	-9285
▁ज़िन्दा	-9286
▁settings	-9287
▁trou	-9288
▁उपस्थिति	-9289
▁राजस्थान	-9290
▁45	-9291
ndra	-9292
▁सौर	-9293
▁आवाज	-9294
heduled	-9295
▁offered	-9296
▁studies	-9297
▁Khan	-9298
▁Rail	-9299
▁नहरें	-9300
▁philosophy	-9301
era	-9302
▁gains	-9303
▁breast	-9304
▁शक्तियों	-9305
न्दु	-9306
▁Mag	-9307
ग्रस्त	-9308
▁equip	-9309
▁संतुल	-9310
▁Division	-9311
▁चुना	-9312
▁contem	-9313
▁Display	-9314
ixt	-9315
नीन	-9316
▁Dem	-9317
▁unity	-9318
▁बढ़ती	-9319
▁disbelieved	-9320
▁mort	-9321
▁assigned	-9322
▁SH	-9323
enior	-9324
uties	-9325
▁Karn	-9326
▁कुफ़्र	-9327
▁2011	-9328
venant	-9329
ेंसी	-9330
▁See	-9331
▁सागर	-9332
▁Social	-9333
imal	-9334
▁moving	-9335
▁confidence	-9336
▁dim	-9337
▁मारे	-9338
▁empty	-9339
▁संपादक	-9340
▁department	-9341
▁विनिमय	-9342
ox	-9343
▁door	-9344
▁थोड़े	-9345
▁शत्रु	-9346
▁congrat	-9347
▁distingu	-9348
▁lad	-9349
▁सलाम	-9350
▁समझने	-9351
▁greatest	-9352
rone	-9353
chand	-9354
epend	-9355
abilities	-9356
▁Rama	-9357
▁heed	-9358
▁ढांचे	-9359
▁व्यावसायिक	-9360
ERS	-9361
atab	-9362
▁bed	-9363
▁flag	-9364
▁birds	-9365
▁fresh	-9366
▁Health	-9367
▁dialog	-9368
▁suffer	-9369
▁History	-9370
▁charges	-9371
▁अपेक्षित	-9372
10	-9373
ika	-9374
▁रण	-9375
▁ब्राह	-9376
▁कोशिका	-9377
▁Mahatma	-9378
ॉँ	-9379
gen	-9380
▁70	-9381
▁खड़ी	-9382
▁points	-9383
▁organisation	-9384
ese	-9385
▁आकृति	-9386
▁द्विप	-9387
▁सभ्यता	-9388
As	-9389
▁मुसी	-9390
नेवालो	-9391
▁griev	-9392
▁views	-9393
▁देखना	-9394
बीह	-9395
अज़ाब	-9396
▁soil	-9397
elines	-9398
▁बस्ती	-9399
▁authent	-9400
सोस	-9401
▁Ext	-9402
.2015	-9403
▁बहुम	-9404
▁साझे	-9405
▁फ़रमा	-9406
▁प्रभुत्वशाली	-9407
▁५	-9408
▁टिक	-9409
urate	-9410
▁शुरु	-9411
▁hospital	-9412
▁Both	-9413
ाइन	-9414
▁Prom	-9415
▁Default	-9416
▁appointment	-9417
▁dry	-9418
▁2003	-9419
▁दादा	-9420
▁चूंकि	-9421
▁seeking	-9422
▁District	-9423
▁approved	-9424
oph	-9425
▁185	-9426
▁Special	-9427
¤¦	-9428
स्फ	-9429
सारिक	-9430
▁सबके	-9431
▁खोलने	-9432
▁enterpr	-9433
थान	-9434
माल	-9435
ंचित	-9436
▁lik	-9437
▁चली	-9438
पेक्ष	-9439
▁fert	-9440
▁भेंट	-9441
स्थापित	-9442
▁Environment	-9443
भावना	-9444
▁जानने	-9445
▁schools	-9446
▁initiatives	-9447
▁rapid	-9448
▁yield	-9449
osh	-9450
▁मृ	-9451
▁impl	-9452
▁नेकी	-9453
▁River	-9454
▁communication	-9455
घर	-9456
▁namely	-9457
▁MS	-9458
▁Ste	-9459
▁कड़ी	-9460
▁हटकर	-9461
▁Belie	-9462
una	-9463
▁नद	-9464
▁debt	-9465
▁रिया	-9466
▁ईमानवालों	-9467
ij	-9468
पह	-9469
▁shr	-9470
▁Data	-9471
▁inher	-9472
▁kinds	-9473
▁दोहरा	-9474
▁divide	-9475
▁jur	-9476
enses	-9477
▁परमाणु	-9478
▁hide	-9479
▁souls	-9480
▁मस्जि	-9481
CE	-9482
▁acts	-9483
▁Rajasthan	-9484
▁replied	-9485
▁articles	-9486
▁forbidden	-9487
Do	-9488
ronic	-9489
▁स्वाम	-9490
▁अन्ततः	-9491
▁सांसारिक	-9492
वेद	-9493
▁लिखे	-9494
▁Akbar	-9495
▁Second	-9496
▁गिरफ्त	-9497
▁विरासत	-9498
▁innovation	-9499
ातु	-9500
▁blessings	-9501
▁कही	-9502
▁मिट	-9503
▁holding	-9504
▁wherein	-9505
25	-9506
dule	-9507
▁महल	-9508
▁चीनी	-9509
▁रहेगी	-9510
osphere	-9511
▁kingdom	-9512
▁reduced	-9513
2)	-9514
▁आह	-9515
aped	-9516
▁निवास	-9517
▁mainly	-9518
ghan	-9519
▁oath	-9520
▁habit	-9521
▁happen	-9522
▁संबद्ध	-9523
▁प्रतिबद्ध	-9524
▁Bad	-9525
▁रवी	-9526
▁दोबारा	-9527
lege	-9528
▁Among	-9529
▁४	-9530
▁Lab	-9531
▁fat	-9532
▁अन्तर	-9533
▁merely	-9534
▁follows	-9535
▁अभाव	-9536
▁परिसर	-9537
▁गांवों	-9538
▁pleased	-9539
IP	-9540
तरित	-9541
▁Nat	-9542
▁daily	-9543
▁conver	-9544
▁season	-9545
▁राजधानी	-9546
▁तोड़	-9547
aneous	-9548
▁युवाओं	-9549
▁profits	-9550
▁organization	-9551
▁~	-9552
ख्ते	-9553
घटना	-9554
▁वंश	-9555
.2016	-9556
lfare	-9557
▁गुमराह	-9558
▁मिलेगी	-9559
▁welfare	-9560
▁machinery	-9561
नीति	-9562
▁सतह	-9563
▁frequ	-9564
▁returns	-9565
▁प्रान्त	-9566
8)	-9567
omy	-9568
raf	-9569
▁Lim	-9570
स्पर्	-9571
▁स्वर	-9572
▁सुनने	-9573
▁happened	-9574
▁challenges	-9575
enth	-9576
फ़ि	-9577
▁पारि	-9578
▁बाह्य	-9579
▁मिलते	-9580
▁सिविल	-9581
▁चरित्र	-9582
▁partner	-9583
▁सम्पूर्ण	-9584
▁संग्र	-9585
▁सम्बन्धी	-9586
▁पैग़म्बरों	-9587
▁00	-9588
▁vital	-9589
▁Programme	-9590
तरी	-9591
नाटक	-9592
▁2010	-9593
▁grand	-9594
▁string	-9595
▁sections	-9596
▁रोगी	-9597
▁33	-9598
▁परिचय	-9599
▁undertaking	-9600
साइ	-9601
▁अश	-9602
▁Key	-9603
venue	-9604
▁लंबी	-9605
▁बारगाह	-9606
▁Besides	-9607
vis	-9608
जिट	-9609
िप्त	-9610
aces	-9611
anged	-9612
▁न्यास	-9613
▁Himalay	-9614
▁intellig	-9615
info	-9616
▁Bel	-9617
▁neck	-9618
▁carrying	-9619
मति	-9620
▁ban	-9621
▁तेरी	-9622
▁excess	-9623
्याद	-9624
▁2004	-9625
▁अभिक	-9626
▁minor	-9627
▁minimum	-9628
▁generations	-9629
arati	-9630
▁Since	-9631
▁Water	-9632
▁हिंसा	-9633
▁एकमात्र	-9634
ॉर्ड	-9635
▁उल्ल	-9636
▁चेहरे	-9637
▁तयशुदा	-9638
▁तस्वीर	-9639
▁feeling	-9640
▁excellent	-9641
▁installed	-9642
85	-9643
uta	-9644
रचना	-9645
व्यव	-9646
ricts	-9647
▁Each	-9648
▁वीर	-9649
▁turns	-9650
▁प्रबंधक	-9651
rad	-9652
▁Mary	-9653
▁Though	-9654
▁altern	-9655
UL	-9656
धर्म	-9657
▁इंच	-9658
▁निः	-9659
phone	-9660
▁Type	-9661
▁lest	-9662
▁slow	-9663
▁कैसा	-9664
▁wrongdo	-9665
▁नियुक्ति	-9666
arant	-9667
▁दाख़	-9668
▁prison	-9669
▁regions	-9670
▁recompense	-9671
चरण	-9672
▁अं	-9673
▁ठहर	-9674
rency	-9675
▁नारा	-9676
▁impos	-9677
▁विनष्ट	-9678
▁लेखन	-9679
जाम	-9680
बेस	-9681
▁याच	-9682
▁प्री	-9683
▁संगम	-9684
▁utter	-9685
▁sought	-9686
▁मिलियन	-9687
▁सकेंगे	-9688
▁sustain	-9689
▁अस्थायी	-9690
▁authorities	-9691
▁arm	-9692
▁cook	-9693
▁primary	-9694
▁creating	-9695
¤	-9696
ाइड	-9697
▁wants	-9698
▁अदालत	-9699
▁अवतरित	-9700
▁practices	-9701
▁02	-9702
▁Two	-9703
▁तलाश	-9704
respond	-9705
▁अनुग्रह	-9706
▁कच	-9707
▁mal	-9708
▁थोड़ी	-9709
▁Commun	-9710
पत	-9711
▁जला	-9712
vention	-9713
▁पुष्टि	-9714
▁notification	-9715
बरा	-9716
िकमत	-9717
aying	-9718
▁Mail	-9719
▁बाकी	-9720
▁कुरान	-9721
▁भेजने	-9722
▁regional	-9723
▁buy	-9724
▁rej	-9725
▁nine	-9726
▁खण्ड	-9727
▁बिगा	-9728
▁joined	-9729
▁हँ	-9730
ilty	-9731
▁Aust	-9732
▁लाइस	-9733
▁keeping	-9734
▁विविधता	-9735
SS	-9736
▁Mer	-9737
▁tab	-9738
▁इल्म	-9739
▁campaign	-9740
gin	-9741
ips	-9742
▁खि	-9743
▁सन्द	-9744
▁अस्वी	-9745
▁रिक्त	-9746
▁battle	-9747
ira	-9748
▁Ham	-9749
▁urban	-9750
▁encoura	-9751
▁covenant	-9752
्लि	-9753
▁डरो	-9754
izations	-9755
ेन	-9756
▁mir	-9757
▁फैल	-9758
रूद्ध	-9759
▁Arch	-9760
▁मानवीय	-9761
▁Bengali	-9762
▁Official	-9763
70	-9764
त्स	-9765
▁nut	-9766
▁highly	-9767
▁समझौते	-9768
▁library	-9769
्यु	-9770
ancing	-9771
▁वर्गों	-9772
▁क़ियामत	-9773
▁फ़ाइलें	-9774
▁Financial	-9775
काब	-9776
▁मेन	-9777
▁आहार	-9778
▁गेंद	-9779
▁पुस्तकालय	-9780
▁आयी	-9781
achal	-9782
मिटेड	-9783
▁cold	-9784
▁prepar	-9785
पंथ	-9786
बाज	-9787
aram	-9788
▁उन्न	-9789
▁affected	-9790
pan	-9791
ंडा	-9792
्मण	-9793
पक्ष	-9794
▁ult	-9795
▁Aff	-9796
▁thank	-9797
¤	-9798
asi	-9799
rees	-9800
ंध्र	-9801
▁कॉल	-9802
▁ड्राइ	-9803
▁पालने	-9804
▁Members	-9805
19	-9806
▁Cap	-9807
▁दर्श	-9808
▁cance	-9809
▁ऑडियो	-9810
conomic	-9811
▁दाख़िल	-9812
▁dispute	-9813
▁गिन	-9814
▁इमार	-9815
▁तुरंत	-9816
▁शर्तों	-9817
▁Date	-9818
▁plat	-9819
▁branch	-9820
▁household	-9821
)?	-9822
▁`	-9823
र्की	-9824
▁ast	-9825
▁huge	-9826
▁resource	-9827
▁प्रतियोग	-9828
▁सुविधाएं	-9829
OC	-9830
▁चुप	-9831
▁प्रथा	-9832
rome	-9833
▁मूर्	-9834
vision	-9835
▁बनाता	-9836
▁receipt	-9837
▁diseases	-9838
▁festival	-9839
▁जाल	-9840
▁भले	-9841
टका	-9842
त्ल	-9843
▁ब्राउ	-9844
▁दिखाने	-9845
▁background	-9846
▁ji	-9847
ीकृत	-9848
▁टैब	-9849
▁मुर्	-9850
▁सफेद	-9851
▁completely	-9852
▁description	-9853
▁destination	-9854
▁individuals	-9855
्पणी	-9856
▁filled	-9857
▁निकाला	-9858
▁विभाजित	-9859
▁Language	-9860
▁जिम्मेदारी	-9861
▁Certificate	-9862
कृष्ण	-9863
iciency	-9864
▁wonder	-9865
▁सराहना	-9866
▁लिमिटेड	-9867
▁positive	-9868
▁अनुसूचित	-9869
▁सर्वोत्तम	-9870
ोष	-9871
ataka	-9872
चार्य	-9873
▁sand	-9874
▁दोनो	-9875
ricket	-9876
▁drawn	-9877
▁believing	-9878
▁communities	-9879
निंग	-9880
्यास	-9881
▁Hour	-9882
▁क़ायम	-9883
▁स्कीम	-9884
▁समुद्री	-9885
▁निरीक्षण	-9886
200	-9887
▁mist	-9888
▁sett	-9889
▁degree	-9890
▁prosperity	-9891
)...	-9892
▁east	-9893
▁डिजा	-9894
▁हिकमत	-9895
▁गुनाहों	-9896
¤¡	-9897
फ़ी	-9898
यिक	-9899
▁Rules	-9900
▁बनाये	-9901
▁क़िस्म	-9902
¤1⁄4	-9903
▁Non	-9904
▁wild	-9905
▁critic	-9906
ensation	-9907
▁Authority	-9908
▁वरि	-9909
▁cand	-9910
▁tong	-9911
▁अवधार	-9912
▁संपादित	-9913
▁IM	-9914
▁reasons	-9915
▁darkness	-9916
साम	-9917
ॉलर	-9918
▁ऑंख	-9919
▁कार्	-9920
▁तारा	-9921
enture	-9922
▁शिक्षक	-9923
▁submitted	-9924
▁ic	-9925
जैसे	-9926
्रेट	-9927
▁syn	-9928
निष्ठ	-9929
▁डिफ़	-9930
▁मॉडल	-9931
▁बच्चा	-9932
▁स्वीकृति	-9933
▁नवान्वेषण	-9934
CO	-9935
क्य	-9936
संबर	-9937
▁पार्	-9938
▁जुड़ा	-9939
▁colour	-9940
▁संध्या	-9941
BI	-9942
पणन	-9943
▁पत	-9944
▁cru	-9945
▁Russ	-9946
▁फिली	-9947
▁theme	-9948
▁confident	-9949
▁requirements	-9950
▁bab	-9951
▁2009	-9952
नात्मक	-9953
▁Assam	-9954
tenance	-9955
▁Joh	-9956
▁क़ुरआन	-9957
▁सितंबर	-9958
iate	-9959
▁150	-9960
ander	-9961
arian	-9962
udget	-9963
▁क्ला	-9964
▁पाँच	-9965
ishing	-9966
porate	-9967
▁actual	-9968
▁garden	-9969
▁volunt	-9970
ंछ	-9971
गन	-9972
▁board	-9973
▁Gardens	-9974
mi	-9975
▁pi	-9976
force	-9977
वलोकन	-9978
▁कश्मीर	-9979
▁integral	-9980
▁pressure	-9981
▁Excellency	-9982
ैत	-9983
गमन	-9984
ores	-9985
▁Ganga	-9986
▁स्वस्थ	-9987
▁delivery	-9988
tion	-9989
▁भरा	-9990
▁ख़ुश	-9991
▁demon	-9992
▁materials	-9993
een	-9994
्यूब	-9995
▁latter	-9996
▁reality	-9997
▁अनुमोदन	-9998
▁प्ला	-9999
▁उपखंड	-10000
▁guilty	-10001
▁relief	-10002
▁वस्त्र	-10003
▁Bu	-10004
▁ठोस	-10005
▁agreed	-10006
▁learned	-10007
▁visible	-10008
▁entitled	-10009
वर्त	-10010
▁खराब	-10011
▁ताकत	-10012
▁moral	-10013
▁latest	-10014
▁हार्दिक	-10015
▁jinn	-10016
▁दबाव	-10017
▁बुरे	-10018
icient	-10019
▁संपादन	-10020
▁passing	-10021
▁features	-10022
che	-10023
seen	-10024
नेवाली	-10025
▁Click	-10026
▁आवश्यकताओं	-10027
▁Est	-10028
▁जम्	-10029
▁crim	-10030
▁वार्	-10031
▁लाइसेंस	-10032
अल	-10033
▁Kov	-10034
श्वास	-10035
▁1956	-10036
▁sick	-10037
▁shared	-10038
▁greetings	-10039
न्ध	-10040
▁ende	-10041
▁late	-10042
▁मोदी	-10043
▁Foreign	-10044
▁picture	-10045
16	-10046
▁4,	-10047
ertain	-10048
igible	-10049
▁title	-10050
▁editor	-10051
▁wronged	-10052
▁समृद्धि	-10053
▁प्रतिष्ठित	-10054
ped	-10055
ura	-10056
▁girl	-10057
▁अपरि	-10058
▁खत्म	-10059
▁हड्ड	-10060
▁दैनिक	-10061
▁प्रदूषण	-10062
▁leadership	-10063
मगर	-10064
▁selection	-10065
हो	-10066
▁Ib	-10067
▁aid	-10068
▁भावी	-10069
▁Panch	-10070
▁विहित	-10071
▁Company	-10072
▁नीतियों	-10073
वश	-10074
oseph	-10075
▁अभिलाभ	-10076
▁aspects	-10077
ख्यात	-10078
▁bodies	-10079
▁प्लगइन	-10080
▁Speaking	-10081
▁संग्रहालय	-10082
सेट	-10083
िने	-10084
valid	-10085
▁राहत	-10086
मुसलमान	-10087
▁everyone	-10088
▁पर्	-10089
▁duties	-10090
▁चौड़ाई	-10091
▁Library	-10092
▁mission	-10093
▁प्रतिभूति	-10094
ज़िर	-10095
▁चिप	-10096
▁सुनते	-10097
▁thereby	-10098
▁हक	-10099
ayana	-10100
▁प्रवाह	-10101
▁England	-10102
▁options	-10103
▁प्रचलित	-10104
▁गौ	-10105
▁अली	-10106
▁reply	-10107
▁disput	-10108
▁internal	-10109
▁yourself	-10110
▁principles	-10111
▁resolution	-10112
aul	-10113
▁meant	-10114
▁समूहों	-10115
▁correspond	-10116
▁द्विपक्षीय	-10117
ग्ध	-10118
cean	-10119
▁hair	-10120
▁ऊपरी	-10121
▁sacred	-10122
▁स्वचालित	-10123
▁यो	-10124
वादियों	-10125
▁universal	-10126
▁अफ़	-10127
▁मृत	-10128
▁नाते	-10129
▁पैके	-10130
▁adequ	-10131
▁juris	-10132
imately	-10133
ैरह	-10134
स्ट्र	-10135
▁सोचा	-10136
▁Trust	-10137
▁सुनता	-10138
▁seized	-10139
▁facility	-10140
हिता	-10141
▁जोड़ा	-10142
▁reforms	-10143
ayan	-10144
स्कट	-10145
▁DVD	-10146
▁fab	-10147
▁drop	-10148
▁Benef	-10149
▁विक्र	-10150
▁performed	-10151
/-	-10152
▁भरे	-10153
ients	-10154
▁Report	-10155
▁teaching	-10156
▁परिभाषित	-10157
हाल	-10158
▁Park	-10159
▁Word	-10160
▁बिंदु	-10161
▁उन्होने	-10162
याय	-10163
ester	-10164
▁|	-10165
क़त	-10166
▁tur	-10167
▁आदान	-10168
▁hypoc	-10169
▁substant	-10170
ache	-10171
▁fell	-10172
▁iron	-10173
▁उतना	-10174
▁moved	-10175
▁Andhra	-10176
▁encourage	-10177
दीक	-10178
▁कू	-10179
eria	-10180
▁300	-10181
▁tiss	-10182
▁plugin	-10183
▁अग्रणी	-10184
ifications	-10185
rench	-10186
▁assum	-10187
▁compr	-10188
▁methods	-10189
▁collabor	-10190
orth	-10191
▁द्वि	-10192
▁मछली	-10193
charge	-10194
▁click	-10195
▁folders	-10196
▁planning	-10197
▁reminder	-10198
▁foundation	-10199
मंड	-10200
▁सप	-10201
▁Yoga	-10202
▁सावधान	-10203
ायर	-10204
▁मौजि	-10205
▁सरकशी	-10206
▁जहन्नम	-10207
▁division	-10208
▁incident	-10209
▁स्वाभाविक	-10210
14	-10211
athi	-10212
ार्ज	-10213
▁Subs	-10214
▁बारी	-10215
▁estim	-10216
▁उन्नत	-10217
▁prices	-10218
▁College	-10219
▁victory	-10220
▁although	-10221
▁inspired	-10222
▁participation	-10223
उंड	-10224
▁कब्	-10225
▁दान	-10226
ollow	-10227
▁users	-10228
▁विपणन	-10229
ocol	-10230
धारी	-10231
▁Life	-10232
▁dear	-10233
▁चैनल	-10234
asm	-10235
▁टूट	-10236
clause	-10237
▁subjects	-10238
sych	-10239
▁west	-10240
▁बोली	-10241
▁channel	-10242
▁संक्रमण	-10243
▁Internet	-10244
▁establishment	-10245
स्को	-10246
▁उगा	-10247
▁हरि	-10248
▁HTML	-10249
isition	-10250
ributed	-10251
▁डो	-10252
▁beings	-10253
▁चिह्नित	-10254
▁भारतीयों	-10255
ho	-10256
ूहिक	-10257
▁परे	-10258
▁फ़िल	-10259
▁Config	-10260
▁myself	-10261
▁delight	-10262
▁श्रद्धा	-10263
itt	-10264
▁रेश	-10265
▁रोज़	-10266
▁बहुतेरे	-10267
▁छि	-10268
ondon	-10269
▁गर्म	-10270
▁साइट	-10271
▁रिज	-10272
inated	-10273
▁petitioner	-10274
ट्	-10275
▁ang	-10276
▁समझे	-10277
▁audio	-10278
▁Current	-10279
▁climate	-10280
ka	-10281
▁Av	-10282
▁बाधा	-10283
▁नेपाल	-10284
urities	-10285
▁दिसंबर	-10286
▁entreprene	-10287
▁governance	-10288
▁लेती	-10289
▁कपड़े	-10290
▁delete	-10291
▁bestowed	-10292
▁ज़ालिमों	-10293
▁transform	-10294
▁Governments	-10295
▁intellectual	-10296
फोन	-10297
▁मक	-10298
सागर	-10299
▁inner	-10300
▁जन्नत	-10301
Comment	-10302
▁released	-10303
▁लानेवालो	-10304
क्क	-10305
हाई	-10306
▁चतु	-10307
▁हुक	-10308
▁ahead	-10309
▁trave	-10310
▁आजादी	-10311
atabase	-10312
▁forever	-10313
▁sources	-10314
दल	-10315
odes	-10316
रीबी	-10317
स्तर	-10318
▁वकी	-10319
कार्य	-10320
▁admon	-10321
फो	-10322
लक	-10323
▁अँ	-10324
रेखा	-10325
inger	-10326
▁ज़रा	-10327
▁मुंह	-10328
▁उत्साह	-10329
▁मंदिरों	-10330
▁daughter	-10331
▁suitable	-10332
▁डिफ़ॉल्ट	-10333
ottom	-10334
▁Disc	-10335
▁अर्ध	-10336
▁भेजी	-10337
▁उतारा	-10338
▁यूनिट	-10339
▁double	-10340
▁टिप्पणी	-10341
pass	-10342
▁Sun	-10343
▁कैं	-10344
astic	-10345
▁Send	-10346
▁ट्रे	-10347
▁nearly	-10348
▁कृतज्ञ	-10349
▁enabled	-10350
▁attached	-10351
look	-10352
▁असर	-10353
▁लाओ	-10354
▁Like	-10355
▁गिरा	-10356
othing	-10357
▁ऊंचाई	-10358
▁limits	-10359
▁अवसरों	-10360
▁साहित्यिक	-10361
grim	-10362
▁छाया	-10363
▁वर्गी	-10364
▁arrest	-10365
▁मुसीबत	-10366
▁कर्नाटक	-10367
▁Scripture	-10368
बाल	-10369
bell	-10370
▁Kar	-10371
oning	-10372
▁छुपा	-10373
▁देखी	-10374
▁प्रविष्टि	-10375
पात	-10376
▁exact	-10377
उप	-10378
▁टॉ	-10379
▁Tru	-10380
rible	-10381
▁star	-10382
▁Reserve	-10383
▁actions	-10384
▁critical	-10385
▁सन	-10386
▁endeav	-10387
▁कर्तव्य	-10388
जान	-10389
▁गू	-10390
▁स्ट्र	-10391
▁challenge	-10392
▁insurance	-10393
▁registration	-10394
▁६	-10395
ेंद्र	-10396
▁Self	-10397
▁Found	-10398
▁कुमार	-10399
▁बन्दे	-10400
▁अस्पताल	-10401
मेरे	-10402
राईल	-10403
▁मानना	-10404
▁समझता	-10405
▁sacrifice	-10406
gypt	-10407
माना	-10408
▁दुर	-10409
▁चाहा	-10410
▁defence	-10411
▁deposit	-10412
▁consists	-10413
pel	-10414
▁लगाए	-10415
्यादती	-10416
▁grass	-10417
▁plays	-10418
▁पर्वत	-10419
▁Custom	-10420
▁दह	-10421
▁फ्र	-10422
▁Docu	-10423
क्रिप्ट	-10424
▁Number	-10425
▁changing	-10426
तिश	-10427
पिता	-10428
▁खाओ	-10429
▁Mighty	-10430
▁manager	-10431
▁Independ	-10432
दरा	-10433
▁atm	-10434
▁घटक	-10435
▁क़दम	-10436
▁डेस्कट	-10437
▁फ़िल्म	-10438
7)	-10439
▁Ash	-10440
▁Maj	-10441
▁दुः	-10442
▁क्रो	-10443
▁सीधी	-10444
▁Autom	-10445
▁Invalid	-10446
▁संवर्धन	-10447
mn	-10448
writ	-10449
▁obst	-10450
▁Color	-10451
▁महीनों	-10452
▁ट्रै	-10453
▁promotion	-10454
▁.	-10455
eks	-10456
▁Sk	-10457
orial	-10458
▁stood	-10459
▁विद्र	-10460
▁सामूहिक	-10461
isms	-10462
ड़ित	-10463
erate	-10464
▁हितों	-10465
▁सदी	-10466
शिष्ट	-10467
▁About	-10468
▁जिहाद	-10469
▁भक्ति	-10470
क्षिप्त	-10471
▁hero	-10472
▁स्वर्ण	-10473
ष्णु	-10474
ार्ट	-10475
ingly	-10476
▁धन्यवाद	-10477
▁दुर्घटना	-10478
▁Assistant	-10479
▁containing	-10480
ipl	-10481
▁Met	-10482
▁चाहें	-10483
▁platform	-10484
▁प्रतिस्पर्	-10485
hu	-10486
य्य	-10487
▁बोस	-10488
▁मकान	-10489
atience	-10490
▁achieved	-10491
ams	-10492
ंची	-10493
ंटा	-10494
तौर	-10495
idge	-10496
▁रूस	-10497
▁अरबी	-10498
▁सचेत	-10499
▁Buddha	-10500
तियां	-10501
▁बादशाह	-10502
▁waiting	-10503
▁recently	-10504
मूल	-10505
▁Make	-10506
▁upper	-10507
▁क़त्ल	-10508
▁orders	-10509
▁सत्यापन	-10510
्मा	-10511
back	-10512
hand	-10513
▁row	-10514
▁उद्ध	-10515
▁गहरी	-10516
▁अन्तर्गत	-10517
दूरी	-10518
▁जवा	-10519
▁Proper	-10520
▁यूरोपीय	-10521
iy	-10522
▁Press	-10523
▁Print	-10524
▁Prote	-10525
▁दिव्य	-10526
▁charged	-10527
▁failure	-10528
▁letters	-10529
▁भरी	-10530
प्रदान	-10531
▁bilateral	-10532
”,	-10533
▁गार	-10534
using	-10535
▁Tour	-10536
▁glor	-10537
▁Mount	-10538
▁reduce	-10539
▁वरिष्ठ	-10540
▁priority	-10541
▁publication	-10542
कोश	-10543
ifies	-10544
▁फर्म	-10545
▁अग्रिम	-10546
रेख	-10547
सीन	-10548
▁Nag	-10549
iders	-10550
▁menu	-10551
▁डिजिट	-10552
▁समानता	-10553
▁nuclear	-10554
▁agencies	-10555
hern	-10556
ॉनिक	-10557
्यूल	-10558
▁कारणों	-10559
▁सीमाओं	-10560
▁surv	-10561
▁minutes	-10562
हमारे	-10563
ेश्वर	-10564
▁आएगा	-10565
▁आरोप	-10566
▁Class	-10567
दर्शिता	-10568
▁पक्षों	-10569
▁centres	-10570
▁जानवरों	-10571
▁historical	-10572
▁AD	-10573
▁ax	-10574
rical	-10575
▁Party	-10576
▁देवता	-10577
▁Knower	-10578
▁पैमाने	-10579
▁Princip	-10580
▁treated	-10581
▁examination	-10582
ंघन	-10583
राव	-10584
मर्श	-10585
▁लूत	-10586
▁पीढ़ी	-10587
▁Kovind	-10588
▁insects	-10589
▁पासवर्ड	-10590
▁mountain	-10591
ubs	-10592
निवेश	-10593
▁proved	-10594
▁proport	-10595
▁सदस्यता	-10596
aut	-10597
▁फु	-10598
शाही	-10599
▁बैक	-10600
▁मक्	-10601
▁Code	-10602
▁दौड़	-10603
▁सीडी	-10604
overed	-10605
▁त्वचा	-10606
▁बाध्य	-10607
bal	-10608
iant	-10609
▁Bah	-10610
▁FOR	-10611
▁करु	-10612
▁ऊँचा	-10613
▁ब्रि	-10614
▁swear	-10615
▁अक्षर	-10616
▁counter	-10617
▁reports	-10618
▁पत्रिका	-10619
▁संरक्षक	-10620
▁fighting	-10621
▁extension	-10622
bon	-10623
संप	-10624
▁(.	-10625
िकता	-10626
▁Civil	-10627
▁उल्लेखनीय	-10628
▁liqu	-10629
▁सहमत	-10630
क्तूबर	-10631
▁London	-10632
▁Another	-10633
▁चाहेंगे	-10634
▁approval	-10635
TH	-10636
▁hind	-10637
▁scholar	-10638
▁डेस्कटॉप	-10639
▁suffering	-10640
IM	-10641
ण्य	-10642
▁मुकाब	-10643
▁तत्काल	-10644
▁शिक्षण	-10645
▁(5)	-10646
▁anti	-10647
▁Nepal	-10648
▁recorded	-10649
▁sanction	-10650
▁अनुज्ञात	-10651
िमा	-10652
plit	-10653
▁Pet	-10654
▁doub	-10655
▁यूसुफ	-10656
▁thanks	-10657
▁साथियों	-10658
▁Society	-10659
▁Palestin	-10660
▁घु	-10661
▁नौकरी	-10662
▁purchase	-10663
▁Mun	-10664
▁flu	-10665
▁Play	-10666
▁tend	-10667
▁चीजों	-10668
▁जम्मू	-10669
▁fabric	-10670
▁अपनाया	-10671
▁चिकित्स	-10672
▁relative	-10673
▁awareness	-10674
▁witnesses	-10675
God	-10676
imb	-10677
न्थ	-10678
▁रवि	-10679
▁Tribunal	-10680
▁register	-10681
▁प्रतिबंध	-10682
▁advantage	-10683
▁commanded	-10684
▁forgiving	-10685
IF	-10686
▁Pen	-10687
▁Egypt	-10688
▁दर्दना	-10689
▁chemical	-10690
▁विनिर्माण	-10691
1}	-10692
ithm	-10693
▁ग़ौर	-10694
▁दर्द	-10695
▁हमको	-10696
▁जितनी	-10697
▁served	-10698
▁मिलाकर	-10699
▁8.	-10700
▁187	-10701
▁Assess	-10702
▁इसराईल	-10703
▁visited	-10704
▁मोमिनीन	-10705
ुरी	-10706
ेरे	-10707
▁5,	-10708
▁पहलू	-10709
oration	-10710
▁पूर्वो	-10711
▁distinct	-10712
EG	-10713
▁उभ	-10714
▁उड़ा	-10715
▁कच्च	-10716
धिकारी	-10717
▁volume	-10718
▁विद्या	-10719
▁requires	-10720
▁अंतरिक्ष	-10721
▁बांग	-10722
क्योंकि	-10723
▁marked	-10724
▁manufacturing	-10725
संच	-10726
▁चेक	-10727
▁पुष्	-10728
▁adopt	-10729
▁Associ	-10730
▁president	-10731
▁टू	-10732
ित्त	-10733
thern	-10734
▁Writ	-10735
▁plot	-10736
▁Creat	-10737
▁Micro	-10738
▁newsp	-10739
▁डिजाइन	-10740
▁प्रारम्भ	-10741
अनु	-10742
▁आंध्र	-10743
▁>>	-10744
▁कोय	-10745
stitu	-10746
▁reck	-10747
▁figures	-10748
फू	-10749
▁caste	-10750
iration	-10751
▁seeing	-10752
▁तुम्हे	-10753
▁रेडियो	-10754
▁क्रिकेट	-10755
▁विरूद्ध	-10756
जाल	-10757
▁Modi	-10758
▁absolute	-10759
कू	-10760
dess	-10761
▁Enc	-10762
▁ren	-10763
▁uns	-10764
▁कष्ट	-10765
▁warner	-10766
aly	-10767
▁खिस	-10768
▁piece	-10769
▁मजदूर	-10770
▁signed	-10771
▁याचिका	-10772
▁असाधारण	-10773
डो	-10774
िरो	-10775
otic	-10776
▁तकलीफ़	-10777
▁पूर्ति	-10778
▁instance	-10779
▁यथास्थिति	-10780
▁पूर्वावलोकन	-10781
▁match	-10782
▁phase	-10783
▁refer	-10784
▁courage	-10785
▁contacts	-10786
oti	-10787
oral	-10788
▁Ira	-10789
▁चोट	-10790
▁नाप	-10791
▁डॉलर	-10792
▁guides	-10793
▁बिगाड़	-10794
▁situated	-10795
श्री	-10796
▁Gov	-10797
▁शोक	-10798
▁Page	-10799
▁अहले	-10800
▁चंद्र	-10801
▁फ़िरऔन	-10802
▁whereas	-10803
▁Stud	-10804
▁नेशनल	-10805
diction	-10806
▁Security	-10807
काता	-10808
▁एक्	-10809
▁बुल	-10810
म्परा	-10811
▁leaf	-10812
otional	-10813
▁Training	-10814
▁constituted	-10815
▁manufacture	-10816
ंगों	-10817
▁Cult	-10818
▁lock	-10819
▁हिमा	-10820
▁mobile	-10821
▁monitor	-10822
▁universities	-10823
▁BC	-10824
▁‘‘	-10825
▁heat	-10826
astern	-10827
▁fault	-10828
▁अर्जित	-10829
▁election	-10830
▁happiness	-10831
rel	-10832
▁यूँ	-10833
▁हला	-10834
▁दावे	-10835
▁तीसरे	-10836
▁सम्भव	-10837
▁उपयोगकर्ता	-10838
mod	-10839
oose	-10840
▁Mat	-10841
▁तंग	-10842
hance	-10843
▁दर्दनाक	-10844
▁निष्कर्ष	-10845
▁पुस्तकों	-10846
▁वस	-10847
rief	-10848
▁preced	-10849
▁तत्वों	-10850
▁प्रतियोगिता	-10851
▁(4	-10852
▁Va	-10853
▁यौ	-10854
ammu	-10855
▁Once	-10856
▁incor	-10857
▁faithful	-10858
▁बजट	-10859
ammed	-10860
enance	-10861
▁पौधों	-10862
▁कठिनाई	-10863
▁ability	-10864
▁यथ	-10865
▁Log	-10866
▁चाय	-10867
▁प्रेस	-10868
orthern	-10869
▁subsequ	-10870
▁फ़रिश्ते	-10871
▁commitment	-10872
ंख्य	-10873
plate	-10874
▁Prem	-10875
▁अंतः	-10876
▁successfully	-10877
esus	-10878
▁ब्य	-10879
▁privile	-10880
▁proceedings	-10881
कल्प	-10882
▁गहन	-10883
▁घाटी	-10884
▁समाय	-10885
▁eleph	-10886
▁replace	-10887
▁warning	-10888
ैया	-10889
त्ते	-10890
▁बचाव	-10891
▁बांध	-10892
▁इंडियन	-10893
▁निशानियों	-10894
esty	-10895
othe	-10896
द्दी	-10897
▁www	-10898
▁पाइ	-10899
▁poem	-10900
▁पैरा	-10901
▁संहिता	-10902
▁पंजीकृत	-10903
▁Karnataka	-10904
RAN	-10905
नान	-10906
्रोल	-10907
▁eth	-10908
▁रिस	-10909
▁हरे	-10910
▁dign	-10911
▁काली	-10912
▁appears	-10913
▁interesting	-10914
ब्ब	-10915
ानिक	-10916
▁hop	-10917
▁दास	-10918
▁Const	-10919
▁राजस्व	-10920
▁descend	-10921
▁healthy	-10922
▁showing	-10923
▁अक्तूबर	-10924
▁क्रांति	-10925
▁प्रेषित	-10926
▁44	-10927
raid	-10928
▁Top	-10929
▁साँ	-10930
▁बारह	-10931
▁दुश्म	-10932
▁Justice	-10933
▁squared	-10934
किसी	-10935
ुसार	-10936
▁पाद	-10937
▁Jews	-10938
▁banking	-10939
rehensive	-10940
▁officials	-10941
पूर	-10942
▁उपकरणों	-10943
,—	-10944
▁फि	-10945
▁ख़ौ	-10946
▁Year	-10947
▁गरीबी	-10948
St	-10949
▁weeks	-10950
▁Arabic	-10951
▁bright	-10952
▁decades	-10953
▁records	-10954
▁parliament	-10955
ses	-10956
रुप	-10957
claim	-10958
▁Iraq	-10959
▁छोड़ा	-10960
▁assured	-10961
मुसलमानों	-10962
pta	-10963
सेस	-10964
▁Next	-10965
▁grown	-10966
▁looks	-10967
▁कनेक्ट	-10968
▁मूलभूत	-10969
▁burning	-10970
▁कॉन्फ़ि	-10971
▁त्रुटिः	-10972
¤«	-10973
▁tom	-10974
▁कहे	-10975
▁कहला	-10976
▁Before	-10977
पश्च	-10978
▁agg	-10979
▁gat	-10980
▁sus	-10981
erves	-10982
▁खतरा	-10983
▁बाबू	-10984
▁सांस	-10985
▁supreme	-10986
▁केंद्रित	-10987
▁falsehood	-10988
rat	-10989
▁उपर	-10990
ड़िया	-10991
abinet	-10992
▁delay	-10993
▁defend	-10994
▁student	-10995
▁principle	-10996
▁fundamental	-10997
going	-10998
▁Find	-10999
▁Help	-11000
▁Mand	-11001
▁band	-11002
▁गठित	-11003
▁पैकेज	-11004
▁बल्ले	-11005
mendment	-11006
▁conflict	-11007
सनीय	-11008
▁veh	-11009
▁काउ	-11010
▁नज़	-11011
▁notes	-11012
▁toward	-11013
▁Administr	-11014
▁discussion	-11015
जनन	-11016
ंडित	-11017
▁announced	-11018
▁Don	-11019
▁Rad	-11020
▁परस	-11021
▁exec	-11022
▁धातु	-11023
▁कहेगा	-11024
▁unable	-11025
▁वार्ता	-11026
▁scientists	-11027
lal	-11028
▁disk	-11029
▁अधिकरण	-11030
▁Control	-11031
▁factors	-11032
▁शक्तिशाली	-11033
▁आब	-11034
▁ईसाई	-11035
▁coord	-11036
▁मैत्री	-11037
▁applied	-11038
दायक	-11039
▁bran	-11040
▁Clear	-11041
▁Vishn	-11042
▁writer	-11043
▁smaller	-11044
-200	-11045
erted	-11046
▁rates	-11047
▁जायें	-11048
▁tonnes	-11049
▁scholars	-11050
alg	-11051
▁चू	-11052
ंकित	-11053
अच्छा	-11054
प्रभु	-11055
▁बैठा	-11056
▁लाना	-11057
▁Jammu	-11058
▁admit	-11059
▁overt	-11060
▁फायदा	-11061
ibilities	-11062
▁download	-11063
-4	-11064
ढ़े	-11065
▁शेय	-11066
▁सरकश	-11067
ittees	-11068
luding	-11069
▁sitting	-11070
▁बैंकिंग	-11071
▁multiple	-11072
▁friendship	-11073
▁Application	-11074
AV	-11075
िली	-11076
्नों	-11077
▁mur	-11078
▁अग्	-11079
▁क्व	-11080
▁infl	-11081
anging	-11082
▁Brahm	-11083
▁accident	-11084
aded	-11085
last	-11086
oken	-11087
यंती	-11088
quest	-11089
▁spoke	-11090
▁आलोचना	-11091
aughters	-11092
▁sending	-11093
▁व्यक्तित्व	-11094
ज़ोर	-11095
शांत	-11096
▁Sind	-11097
▁herit	-11098
ulating	-11099
▁Export	-11100
▁Invest	-11101
▁orient	-11102
▁प्रस्तु	-11103
▁followers	-11104
▁democratic	-11105
wa	-11106
IME	-11107
काय	-11108
▁Noah	-11109
▁helps	-11110
▁सहमति	-11111
▁उद्यान	-11112
▁Unknown	-11113
▁objects	-11114
▁merciful	-11115
▁proposed	-11116
बेह	-11117
▁bes	-11118
▁औरत	-11119
▁coal	-11120
स्ट्री	-11121
▁Human	-11122
▁Rajya	-11123
▁abode	-11124
▁offline	-11125
▁efficient	-11126
▁</	-11127
▁uses	-11128
▁समन्वय	-11129
▁bringing	-11130
▁काफ़िरों	-11131
▁वाणिज्यिक	-11132
▁transferred	-11133
▁professional	-11134
,'	-11135
22	-11136
टि	-11137
ादिर	-11138
▁Fort	-11139
▁weap	-11140
▁अब्द	-11141
▁abund	-11142
▁phone	-11143
▁देगें	-11144
holders	-11145
▁recognised	-11146
ica	-11147
▁जम	-11148
वंबर	-11149
▁नार	-11150
▁मरा	-11151
▁अकाद	-11152
icious	-11153
▁जवाहर	-11154
▁decide	-11155
▁काफिरों	-11156
▁becoming	-11157
DU	-11158
▁सद्	-11159
▁Call	-11160
▁Down	-11161
▁फ़िल्टर	-11162
01.	-11163
▁Nan	-11164
▁sell	-11165
▁micro	-11166
▁ढांचा	-11167
▁संवेदन	-11168
▁negative	-11169
शः	-11170
▁लगती	-11171
▁deleg	-11172
▁परिवारों	-11173
▁भटक	-11174
▁sole	-11175
▁valu	-11176
▁acquired	-11177
तू	-11178
apur	-11179
▁bene	-11180
▁माने	-11181
pected	-11182
▁explo	-11183
▁संदाय	-11184
▁doctor	-11185
▁showed	-11186
▁प्रणाल	-11187
▁concent	-11188
oples	-11189
▁hill	-11190
▁ग्री	-11191
▁कामों	-11192
▁Process	-11193
▁elected	-11194
▁कोविन्द	-11195
▁बौद्धिक	-11196
▁heritage	-11197
▁obtained	-11198
▁whatsoever	-11199
▁34	-11200
▁CH	-11201
ouch	-11202
वानी	-11203
▁उर्व	-11204
▁Server	-11205
▁courts	-11206
▁निर्मा	-11207
▁मुक्ति	-11208
▁districts	-11209
▁engineering	-11210
mar	-11211
▁Id	-11212
▁skill	-11213
▁शान्त	-11214
had	-11215
▁CON	-11216
inity	-11217
▁married	-11218
▁मनुष्यों	-11219
▁currently	-11220
▁Legislative	-11221
US	-11222
▁सल	-11223
▁Bose	-11224
▁abide	-11225
▁sugar	-11226
▁धारणा	-11227
▁instruments	-11228
▁Nare	-11229
▁Mahab	-11230
▁फार्म	-11231
▁currency	-11232
▁टो	-11233
▁पाब	-11234
▁pollution	-11235
No	-11236
pet	-11237
▁surpr	-11238
▁रूपांत	-11239
▁effects	-11240
▁जिम्मेदार	-11241
▁implemented	-11242
,%	-11243
▁AS	-11244
anya	-11245
issa	-11246
▁Women	-11247
▁नेत्र	-11248
-8	-11249
.—	-11250
lo	-11251
ुत्	-11252
▁तैय	-11253
▁मादा	-11254
▁जोड़े	-11255
▁Business	-11256
▁patience	-11257
▁withdraw	-11258
▁daughters	-11259
िरी	-11260
▁शरण	-11261
स्पति	-11262
▁arrog	-11263
▁पड़ती	-11264
▁प्रोज	-11265
▁मोमिन	-11266
▁सैनिक	-11267
ghanistan	-11268
▁politics	-11269
▁eld	-11270
▁adult	-11271
▁enhan	-11272
▁weather	-11273
▁विद्यालय	-11274
धानिक	-11275
▁कागज	-11276
isations	-11277
▁उल्लंघन	-11278
▁चुनौतियों	-11279
सो	-11280
alt	-11281
oser	-11282
▁cave	-11283
▁rice	-11284
▁सकाः	-11285
▁doesn	-11286
▁recon	-11287
▁candid	-11288
▁recall	-11289
ila	-11290
omic	-11291
▁शिशु	-11292
▁जायेगी	-11293
▁destruction	-11294
▁dia	-11295
▁मॉड	-11296
redit	-11297
▁रहस्य	-11298
▁पड़ेगा	-11299
▁ब्रह्म	-11300
▁classes	-11301
aced	-11302
▁Gra	-11303
ormal	-11304
▁मुगल	-11305
▁निवासी	-11306
▁confirm	-11307
▁औपचारिक	-11308
▁decisions	-11309
▁compassion	-11310
▁गवर्	-11311
▁बनकर	-11312
▁श्रमिक	-11313
iversary	-11314
EP	-11315
Re	-11316
ंजलि	-11317
जीवन	-11318
▁रोका	-11319
▁choice	-11320
▁विद्वान	-11321
ैम	-11322
▁48	-11323
▁बेटा	-11324
▁साहस	-11325
स्ट्रे	-11326
▁Joseph	-11327
▁damage	-11328
▁escape	-11329
▁प्रभाग	-11330
▁सुसंगत	-11331
▁फ़रिश्तों	-11332
▁संक्षिप्त	-11333
▁administrative	-11334
ुरा	-11335
▁reb	-11336
▁ears	-11337
▁Would	-11338
▁indig	-11339
▁कक्षा	-11340
▁चीज़े	-11341
▁unknown	-11342
▁परम्परा	-11343
▁सेल	-11344
▁फेंक	-11345
▁लिंग	-11346
ध्यक्ष	-11347
▁Mother	-11348
▁playing	-11349
▁कारोबार	-11350
ियाई	-11351
▁Ben	-11352
▁ध्वज	-11353
▁चाहती	-11354
▁skills	-11355
rier	-11356
िश्र	-11357
▁sends	-11358
▁अकेले	-11359
▁hasten	-11360
▁Affairs	-11361
▁नवंबर	-11362
▁लगाना	-11363
▁behold	-11364
▁factor	-11365
ployment	-11366
▁Ent	-11367
▁चिंत	-11368
▁टुकड़े	-11369
▁तमिलना	-11370
▁प्रवृत्ति	-11371
.11	-11372
will	-11373
▁mig	-11374
.2013	-11375
▁attain	-11376
▁obvious	-11377
▁appeared	-11378
▁objectives	-11379
EC	-11380
सीय	-11381
▁वकील	-11382
▁प्रत्या	-11383
▁maintenance	-11384
▁technologies	-11385
▁पहन	-11386
eless	-11387
inese	-11388
▁वंचित	-11389
▁दक्षिणी	-11390
▁compared	-11391
▁gathered	-11392
▁jurisdiction	-11393
▁Soft	-11394
क्षणिक	-11395
▁recip	-11396
▁पैरवी	-11397
▁निष्पादन	-11398
▁इक	-11399
▁Hon	-11400
▁fee	-11401
▁अम्	-11402
rites	-11403
▁John	-11404
▁Nadu	-11405
▁Kumar	-11406
▁जयंती	-11407
▁निकले	-11408
▁बढ़ने	-11409
▁lawful	-11410
▁equipment	-11411
▁कॉन्फ़िगर	-11412
वारी	-11413
▁बेल	-11414
ishes	-11415
▁NAME	-11416
▁जिसपर	-11417
▁प्रसंस्	-11418
▁ordinary	-11419
▁initiative	-11420
15	-11421
पेट	-11422
▁Dec	-11423
▁Mult	-11424
▁bounty	-11425
▁अंतराल	-11426
▁बाग़ों	-11427
▁comfort	-11428
▁बस्तियों	-11429
anj	-11430
काने	-11431
पूर्ति	-11432
▁minds	-11433
▁noted	-11434
▁क़ुबूल	-11435
▁संभावित	-11436
▁operating	-11437
नाक	-11438
▁-.	-11439
anas	-11440
▁irr	-11441
▁बढा	-11442
▁1947	-11443
▁argument	-11444
▁properly	-11445
▁permanent	-11446
▁स्वामित्व	-11447
्द	-11448
▁गै	-11449
lets	-11450
▁Tel	-11451
कर्षण	-11452
स्तानी	-11453
▁archive	-11454
izon	-11455
▁Yes	-11456
▁amb	-11457
▁sym	-11458
▁साव	-11459
▁Mugh	-11460
▁चीजें	-11461
▁प्यार	-11462
▁stands	-11463
▁Ministers	-11464
▁interpret	-11465
▁organized	-11466
▁university	-11467
पल	-11468
गों	-11469
▁गर	-11470
▁drugs	-11471
▁परसतिश	-11472
▁Command	-11473
▁इस्लामी	-11474
▁examples	-11475
1)	-11476
वती	-11477
्वान	-11478
▁Ref	-11479
▁हिमालय	-11480
▁thoughts	-11481
त्ती	-11482
▁Ali	-11483
▁Max	-11484
ceeds	-11485
▁कॉलेज	-11486
▁यहूदी	-11487
▁Austral	-11488
▁inherit	-11489
▁पदार्थों	-11490
▁organised	-11491
▁corruption	-11492
▁छू	-11493
▁compar	-11494
▁adequate	-11495
▁hall	-11496
▁western	-11497
▁il	-11498
▁kil	-11499
▁अगली	-11500
▁अभिन	-11501
▁पिछली	-11502
pective	-11503
▁conducted	-11504
▁विद्यार्थी	-11505
ूली	-11506
▁आल	-11507
▁खतर	-11508
antic	-11509
▁Load	-11510
▁हाथी	-11511
omever	-11512
▁facts	-11513
▁Industrial	-11514
सूर	-11515
स्थल	-11516
▁rob	-11517
place	-11518
▁आबादी	-11519
▁समुचित	-11520
▁उपलब्धि	-11521
▁addressed	-11522
ris	-11523
udi	-11524
ल्‍	-11525
▁Alm	-11526
▁prose	-11527
▁Chapter	-11528
▁maintained	-11529
▁ज़ोर	-11530
▁लेगा	-11531
▁holds	-11532
ensions	-11533
▁afford	-11534
ब्रे	-11535
▁नोड	-11536
▁साध	-11537
▁agency	-11538
▁settled	-11539
▁तंत्रिका	-11540
▁Das	-11541
▁mos	-11542
▁rent	-11543
▁पहुंचे	-11544
▁constant	-11545
▁afraid	-11546
▁संचालित	-11547
▁इजा	-11548
▁ताला	-11549
▁फोटो	-11550
▁Vishnu	-11551
▁enemies	-11552
▁प्रवृत्त	-11553
fast	-11554
oned	-11555
▁सब्	-11556
▁गहराई	-11557
▁मस्जिद	-11558
▁रिजर्व	-11559
▁welcome	-11560
डकर	-11561
ankar	-11562
ख्तेयार	-11563
▁citizen	-11564
▁territory	-11565
ni	-11566
¤¬	-11567
▁IC	-11568
izes	-11569
▁cow	-11570
▁उभर	-11571
ially	-11572
▁arms	-11573
▁देशी	-11574
▁pages	-11575
▁resist	-11576
▁struct	-11577
▁thirty	-11578
▁Remember	-11579
▁suddenly	-11580
▁conference	-11581
alle	-11582
धीरे	-11583
र्ज़	-11584
▁पीने	-11585
▁incur	-11586
▁desert	-11587
▁प्रोटोक	-11588
▁सम्पर्क	-11589
▁centuries	-11590
▁Tri	-11591
▁खिल	-11592
▁पैसे	-11593
▁willed	-11594
▁solution	-11595
▁identified	-11596
ङ्	-11597
AND	-11598
urg	-11599
▁bul	-11600
ग्रहण	-11601
▁didn	-11602
▁जुड़ी	-11603
▁chance	-11604
▁शिक्षकों	-11605
▁atmosphere	-11606
ंभव	-11607
▁Files	-11608
▁छुटकारा	-11609
▁covering	-11610
▁dedicated	-11611
ुम्ब	-11612
▁Gaz	-11613
▁Rest	-11614
▁lose	-11615
▁पेशे	-11616
▁inval	-11617
▁स्टेशन	-11618
▁रिकार्ड	-11619
▁गिरफ्तार	-11620
न्य	-11621
▁evol	-11622
▁समाह	-11623
▁stars	-11624
▁blessed	-11625
▁स्वीकृत	-11626
▁contents	-11627
▁devotion	-11628
▁marketing	-11629
.10	-11630
▁पच	-11631
▁Kan	-11632
▁अमल	-11633
▁घूम	-11634
itual	-11635
▁सरपर	-11636
क्ताओं	-11637
दराबाद	-11638
▁solar	-11639
▁Ha	-11640
दिरा	-11641
▁आनु	-11642
▁कराना	-11643
▁SP	-11644
▁पोषण	-11645
brance	-11646
▁सामान्यतः	-11647
▁सफलतापूर्वक	-11648
ourse	-11649
▁disg	-11650
▁जीवा	-11651
▁मनोर	-11652
▁सवार	-11653
▁launch	-11654
▁motion	-11655
▁transaction	-11656
▁रवीन्द्रनाथ	-11657
MP	-11658
▁मिथ	-11659
▁City	-11660
▁चन्द	-11661
▁Friend	-11662
▁आसमानों	-11663
▁ब्रिटेन	-11664
▁attitude	-11665
▁आमंत्रित	-11666
odh	-11667
मों	-11668
▁हॉ	-11669
▁demonstr	-11670
▁eligible	-11671
▁configuration	-11672
amin	-11673
arya	-11674
डिंग	-11675
▁URI	-11676
▁vir	-11677
▁prime	-11678
▁प्रसंग	-11679
▁उद्देश्यों	-11680
कीर्ण	-11681
ग़रज़	-11682
▁aims	-11683
▁इनसे	-11684
▁favor	-11685
▁tasks	-11686
▁कोलकाता	-11687
▁designed	-11688
.12	-11689
दस्त	-11690
सीसी	-11691
▁Kab	-11692
▁rid	-11693
▁टर्म	-11694
▁रुचि	-11695
▁रहमान	-11696
▁feature	-11697
▁finance	-11698
▁thousands	-11699
▁गर्व	-11700
▁गोया	-11701
▁Middle	-11702
▁closed	-11703
▁branches	-11704
लभ	-11705
ंसिल	-11706
▁wr	-11707
▁Jaw	-11708
▁कथन	-11709
▁Flag	-11710
▁Musa	-11711
▁इसपर	-11712
▁पूछो	-11713
▁psych	-11714
कांक्षा	-11715
▁विष्णु	-11716
▁योग्यता	-11717
IST	-11718
▁ment	-11719
▁जनरल	-11720
▁अर्ज़	-11721
▁Whoever	-11722
▁guarant	-11723
▁medicine	-11724
▁terrible	-11725
▁substance	-11726
ंशिक	-11727
क्सा	-11728
िन्त	-11729
▁10.	-11730
▁Good	-11731
▁font	-11732
▁senior	-11733
▁peoples	-11734
प्न	-11735
▁गौरव	-11736
▁Hyder	-11737
▁ग्राफ	-11738
▁Engine	-11739
▁License	-11740
▁finally	-11741
▁Regional	-11742
▁प्रकाशना	-11743
cont	-11744
ette	-11745
▁Sard	-11746
▁spot	-11747
▁रानी	-11748
▁Judge	-11749
▁आज़मा	-11750
▁कर्ता	-11751
▁प्रास	-11752
▁Although	-11753
▁grateful	-11754
▁संस्थापित	-11755
▁electricity	-11756
FC	-11757
▁सहन	-11758
▁दिलच	-11759
क़ुरान	-11760
ूष	-11761
▁छत	-11762
▁नै	-11763
▁जीन	-11764
▁User	-11765
▁आपसे	-11766
▁brows	-11767
▁स्मरण	-11768
▁flowers	-11769
▁प्राधिकार	-11770
प्ट	-11771
▁SC	-11772
aman	-11773
▁Orissa	-11774
▁स्थाना	-11775
▁enhance	-11776
्मी	-11777
▁08	-11778
ड़ना	-11779
▁1992	-11780
▁idol	-11781
▁त्रि	-11782
▁sanct	-11783
▁reported	-11784
▁Christian	-11785
खन	-11786
शंकर	-11787
▁Jag	-11788
▁Swami	-11789
▁blame	-11790
राष्ट्र	-11791
▁strike	-11792
▁अन्तिम	-11793
▁डिजिटल	-11794
▁मशीनरी	-11795
▁prayers	-11796
atre	-11797
▁1950	-11798
▁निकलने	-11799
▁सिद्धांतों	-11800
शनी	-11801
ार्इ	-11802
▁wage	-11803
▁क्षण	-11804
▁वैसा	-11805
▁माध्य	-11806
▁आरंभिक	-11807
▁pilgrim	-11808
▁पहुंचने	-11809
▁उत्तरदायी	-11810
rd	-11811
▁LD	-11812
iced	-11813
▁गर्भ	-11814
▁घुमा	-11815
▁billion	-11816
▁respective	-11817
▁9.	-11818
▁नान	-11819
▁इलाज	-11820
iments	-11821
▁किलोमीटर	-11822
van	-11823
▁El	-11824
▁memo	-11825
▁दिमा	-11826
▁जानकर	-11827
▁बांग्ला	-11828
▁identity	-11829
बै	-11830
roc	-11831
▁37	-11832
umin	-11833
luded	-11834
▁आचरण	-11835
▁costs	-11836
▁Windows	-11837
▁इलेक्ट्रॉनिक	-11838
-3	-11839
▁ec	-11840
▁पड	-11841
▁brain	-11842
▁offices	-11843
▁principal	-11844
पादित	-11845
▁Best	-11846
▁ज़कात	-11847
▁ट्रैक	-11848
▁रसायन	-11849
▁felicit	-11850
▁advanced	-11851
अब	-11852
anta	-11853
▁Ter	-11854
▁पंख	-11855
▁brief	-11856
▁heads	-11857
▁marry	-11858
▁sweet	-11859
▁पार्क	-11860
▁AP	-11861
umer	-11862
▁hrs	-11863
▁बचत	-11864
▁train	-11865
▁theory	-11866
▁पहाड़ी	-11867
▁स्वभाव	-11868
▁संशोधित	-11869
▁प्रयोगशाला	-11870
▁Ka	-11871
▁पोत	-11872
▁मानी	-11873
▁Close	-11874
▁पंडित	-11875
unction	-11876
ien	-11877
शित	-11878
▁Ele	-11879
▁dog	-11880
▁Sikh	-11881
▁चट्ट	-11882
▁डराने	-11883
▁fourth	-11884
▁turning	-11885
▁अनुपालन	-11886
▁जातियों	-11887
▁वाक़िफ़	-11888
▁category	-11889
LE	-11890
je	-11891
तोष	-11892
▁इम	-11893
बूती	-11894
marks	-11895
▁कमरे	-11896
▁Forest	-11897
99	-11898
▁Exe	-11899
▁tim	-11900
▁बाहम	-11901
ndered	-11902
▁ritual	-11903
▁अनुसूची	-11904
▁Agriculture	-11905
तरे	-11906
▁नक	-11907
oles	-11908
ज़ाम	-11909
osers	-11910
plete	-11911
▁पांड	-11912
▁वारिस	-11913
▁मित्रों	-11914
▁thereafter	-11915
नें	-11916
▁lif	-11917
▁अलब	-11918
ansion	-11919
▁Force	-11920
▁Rural	-11921
▁discl	-11922
▁width	-11923
▁commod	-11924
▁ईमानवाले	-11925
▁Pay	-11926
▁परो	-11927
.2019	-11928
▁Link	-11929
▁मासिक	-11930
▁Choose	-11931
▁आउटपुट	-11932
▁Similar	-11933
IG	-11934
गारी	-11935
▁Anj	-11936
▁ble	-11937
▁Univers	-11938
▁whenever	-11939
yl	-11940
ym	-11941
▁तह	-11942
▁Bin	-11943
▁खनि	-11944
▁1000	-11945
▁mock	-11946
cutive	-11947
▁links	-11948
▁throw	-11949
▁fertil	-11950
▁तापमान	-11951
OT	-11952
eal	-11953
▁एयर	-11954
▁blue	-11955
खु	-11956
ंजा	-11957
▁Small	-11958
▁simpl	-11959
▁दरिया	-11960
▁मददगार	-11961
▁occurred	-11962
▁committee	-11963
avid	-11964
पट्टी	-11965
▁पौधे	-11966
▁संवे	-11967
▁सम्रा	-11968
▁Compan	-11969
▁Nature	-11970
▁broken	-11971
▁desktop	-11972
▁पुरुषों	-11973
▁हैदराबाद	-11974
▁Foundation	-11975
याद	-11976
elve	-11977
▁Produ	-11978
▁forgot	-11979
▁Chinese	-11980
लै	-11981
दृश्य	-11982
acific	-11983
▁categ	-11984
▁coast	-11985
▁बढ़ते	-11986
▁भर्ती	-11987
डन	-11988
agh	-11989
mer	-11990
NAME	-11991
▁whomever	-11992
13	-11993
खाव	-11994
▁झुक	-11995
▁जहाज	-11996
▁फ्लै	-11997
ranath	-11998
▁निवार	-11999
▁वर्णित	-12000
▁अत्याचार	-12001
▁temporary	-12002
tes	-12003
roll	-12004
▁crow	-12005
ladesh	-12006
▁बुलाया	-12007
▁markets	-12008
▁elections	-12009
▁processes	-12010
▁१८	-12011
hets	-12012
▁जीत	-12013
rafts	-12014
▁stre	-12015
▁पिला	-12016
▁मातृ	-12017
▁oblig	-12018
▁adjust	-12019
▁Article	-12020
▁इंजीनिय	-12021
▁Believers	-12022
▁Ye	-12023
ख़बरी	-12024
▁Muse	-12025
▁gate	-12026
▁आश्व	-12027
▁अत्याचारी	-12028
ज़ि	-12029
समें	-12030
▁bind	-12031
▁देगी	-12032
▁परिक	-12033
▁पोजी	-12034
▁बचाने	-12035
▁मानवता	-12036
▁Independence	-12037
¤¶	-12038
▁10,	-12039
ख़ेरत	-12040
▁लड़की	-12041
▁इसीलिए	-12042
▁एकीकृत	-12043
▁penalty	-12044
▁सरपरस्त	-12045
yr	-12046
▁UT	-12047
▁अख	-12048
onds	-12049
▁upgr	-12050
▁सोने	-12051
▁न्यायिक	-12052
है	-12053
ping	-12054
▁श्व	-12055
ब्लिक	-12056
्लैंड	-12057
▁गहरे	-12058
▁संतु	-12059
▁रूपों	-12060
▁लोकता	-12061
▁वापसी	-12062
▁analysis	-12063
▁judgment	-12064
▁तमिलनाडु	-12065
▁displayed	-12066
▁properties	-12067
UM	-12068
oot	-12069
wan	-12070
पानी	-12071
▁mad	-12072
▁काश	-12073
▁वास	-12074
▁Adam	-12075
▁Vice	-12076
▁मंडल	-12077
▁इनपुट	-12078
▁पंचाय	-12079
▁सकेगी	-12080
▁filter	-12081
▁seemed	-12082
बूझ	-12083
ster	-12084
▁बहा	-12085
▁फज़ल	-12086
▁union	-12087
बूर	-12088
क्की	-12089
▁नती	-12090
न्हीं	-12091
▁विनाश	-12092
▁reveal	-12093
▁फ्रांस	-12094
▁समाहित	-12095
▁Eastern	-12096
▁arrived	-12097
चिक	-12098
राशि	-12099
बोर्ड	-12100
▁Signs	-12101
▁शिल्प	-12102
▁Speaker	-12103
▁महाराजा	-12104
▁creative	-12105
▁हिंदुस्तान	-12106
xx	-12107
हु	-12108
लित	-12109
atio	-12110
ोनें	-12111
▁Sud	-12112
▁उपे	-12113
▁चमक	-12114
▁तुर्की	-12115
▁दूरस्थ	-12116
▁सिंचाई	-12117
▁undertaken	-12118
ola	-12119
याल	-12120
▁alt	-12121
▁curs	-12122
▁rout	-12123
▁suit	-12124
्रोतों	-12125
▁क़रीब	-12126
▁कार्ब	-12127
▁लिखें	-12128
▁disbelief	-12129
▁movements	-12130
▁temperature	-12131
टाई	-12132
रीन	-12133
ोजक	-12134
ipes	-12135
anish	-12136
▁काले	-12137
▁उच्चतर	-12138
▁सम्मानित	-12139
ौरन	-12140
▁Mos	-12141
▁surre	-12142
▁तैयारी	-12143
▁परिवेश	-12144
-#-#-#-#	-12145
sha	-12146
ानत	-12147
ंतिक	-12148
quiry	-12149
▁बहाद	-12150
▁मुख़	-12151
▁जापान	-12152
▁प्रोजेक्ट	-12153
अच्छ	-12154
सूची	-12155
▁आमाल	-12156
▁ज़रिए	-12157
▁absence	-12158
▁accused	-12159
▁#-#-#-#-#	-12160
uit	-12161
▁Read	-12162
▁pled	-12163
▁आबंट	-12164
▁backs	-12165
▁जायेंगे	-12166
▁Settings	-12167
▁informed	-12168
lude	-12169
▁loans	-12170
▁pride	-12171
▁sevent	-12172
▁functioning	-12173
’,	-12174
hus	-12175
▁Az	-12176
akti	-12177
ंबित	-12178
▁दाम	-12179
aints	-12180
▁orph	-12181
olkata	-12182
▁inhab	-12183
▁mostly	-12184
▁journal	-12185
▁समितियों	-12186
OM	-12187
बाजी	-12188
श्रे	-12189
▁leads	-12190
व्यवहार	-12191
▁Divine	-12192
▁liquid	-12193
▁capable	-12194
▁शैक्षणिक	-12195
“”	-12196
▁End	-12197
▁sad	-12198
▁फिट	-12199
▁फीस	-12200
▁1998	-12201
▁roof	-12202
▁अकार	-12203
▁अनाज	-12204
संरचना	-12205
▁poets	-12206
▁व्युत्	-12207
▁Options	-12208
▁tomorrow	-12209
▁पट	-12210
▁१५	-12211
पंथी	-12212
▁सकी	-12213
▁runs	-12214
▁zero	-12215
▁सिंध	-12216
▁Aware	-12217
▁पोस्ट	-12218
▁center	-12219
▁sorrow	-12220
▁इन्सान	-12221
▁accompan	-12222
▁environmental	-12223
▁बहस	-12224
▁फ्रे	-12225
▁अकेला	-12226
▁जादूगर	-12227
▁परिभाषा	-12228
▁साक्ष्य	-12229
zz	-12230
▁plans	-12231
▁अग्नि	-12232
▁मौलिक	-12233
▁comment	-12234
▁immense	-12235
▁सावधानी	-12236
▁applicable	-12237
.09	-12238
संघ	-12239
king	-12240
oked	-12241
▁fifty	-12242
▁multi	-12243
▁Judgment	-12244
ART	-12245
uity	-12246
पोषण	-12247
▁नवा	-12248
oring	-12249
▁aside	-12250
▁186	-12251
sible	-12252
▁cris	-12253
निर्भर	-12254
▁संदेय	-12255
▁नवम्बर	-12256
▁सम्बंध	-12257
▁Limited	-12258
▁expenses	-12259
▁organizations	-12260
गरी	-12261
शोथ	-12262
▁pu	-12263
▁झि	-12264
▁धम	-12265
char	-12266
▁अवय	-12267
▁Circ	-12268
▁उन्म	-12269
▁डालें	-12270
▁मानता	-12271
▁bottom	-12272
RE	-12273
▁Gr	-12274
ibly	-12275
asant	-12276
विचार	-12277
▁रखकर	-12278
edient	-12279
▁deity	-12280
ourable	-12281
raction	-12282
▁differences	-12283
▁कोष	-12284
▁Perm	-12285
aviour	-12286
▁fulfil	-12287
▁अमरीकी	-12288
▁महाभारत	-12289
▁governments	-12290
De	-12291
▁बीस	-12292
▁इच्छ	-12293
कलापों	-12294
▁girls	-12295
▁कुफ्र	-12296
▁तरीकों	-12297
▁Nations	-12298
▁Hyderabad	-12299
▁possession	-12300
▁वैज्ञानिकों	-12301
सेना	-12302
▁खून	-12303
osite	-12304
▁वरीय	-12305
▁losers	-12306
▁अभिदाता	-12307
▁employee	-12308
▁Principal	-12309
▁compensation	-12310
.08	-12311
▁1"	-12312
सलों	-12313
stood	-12314
▁सहारा	-12315
▁Awards	-12316
▁French	-12317
▁पोजीशन	-12318
▁व्यस्त	-12319
PC	-12320
pto	-12321
क्‍	-12322
जिन	-12323
▁जू	-12324
▁उपास	-12325
▁नस्ल	-12326
▁लंबाई	-12327
▁शानदार	-12328
स्ट्रेलिया	-12329
▁चाँ	-12330
▁Oper	-12331
▁shad	-12332
▁गाँव	-12333
▁दीक्षा	-12334
▁निकालने	-12335
▁apostles	-12336
▁represents	-12337
apa	-12338
nov	-12339
▁Bur	-12340
▁परत	-12341
▁sequ	-12342
▁Apost	-12343
▁horse	-12344
▁expert	-12345
▁grieve	-12346
▁Institut	-12347
▁humanity	-12348
फाई	-12349
▁Tab	-12350
ंतरित	-12351
च्छिक	-12352
▁झुका	-12353
criber	-12354
▁कीजिए	-12355
▁संतोष	-12356
▁cricket	-12357
▁fulfilled	-12358
▁हस्तक्षेप	-12359
▁sustenance	-12360
▁hurt	-12361
▁Allow	-12362
▁चिन्ह	-12363
▁सैन्य	-12364
▁हटाएँ	-12365
▁Subhas	-12366
▁fed	-12367
▁Food	-12368
▁दरबार	-12369
▁worlds	-12370
▁विद्रोह	-12371
▁outstanding	-12372
▁automatically	-12373
निस	-12374
लास	-12375
pers	-12376
▁सतत	-12377
urved	-12378
while	-12379
▁पदों	-12380
▁पुकारा	-12381
तुम्हारे	-12382
▁apostle	-12383
▁इंजीनियर	-12384
ena	-12385
ename	-12386
ested	-12387
▁श्वे	-12388
दाताओं	-12389
▁concl	-12390
▁exhib	-12391
▁ढूंढें	-12392
▁Certain	-12393
▁sculpture	-12394
▁अट	-12395
book	-12396
oman	-12397
isher	-12398
▁गुजर	-12399
र्दू	-12400
ेंडर	-12401
▁mel	-12402
▁उठे	-12403
iated	-12404
▁Tool	-12405
▁कायम	-12406
▁दलील	-12407
▁simply	-12408
operative	-12409
▁प्रसंस्करण	-12410
▁,	-12411
uli	-12412
ंधन	-12413
▁पान	-12414
asters	-12415
विमर्श	-12416
▁पथभ्र	-12417
▁बोलते	-12418
▁extremely	-12419
▁प्रक्रियाओं	-12420
देशों	-12421
▁लाएँ	-12422
active	-12423
▁deeply	-12424
ज़ख़	-12425
▁पाप	-12426
▁फार	-12427
▁रामा	-12428
▁decor	-12429
▁walls	-12430
▁मुद्दे	-12431
▁deleted	-12432
क्कर	-12433
देशक	-12434
लयों	-12435
wered	-12436
▁शर्त	-12437
▁औरतें	-12438
▁Museum	-12439
▁formal	-12440
▁विक्रय	-12441
▁अवधारणा	-12442
▁Password	-12443
▁entirely	-12444
21	-12445
▁Ban	-12446
▁गाँ	-12447
वस्तु	-12448
हारिक	-12449
▁1990	-12450
▁उतनी	-12451
▁कॉपी	-12452
▁तकलीफ	-12453
▁illust	-12454
▁narrow	-12455
otton	-12456
▁Line	-12457
▁fuel	-12458
▁Support	-12459
▁equally	-12460
▁प्रतिफल	-12461
▁प्रतिकूल	-12462
▁creatures	-12463
▁सकारात्मक	-12464
iform	-12465
▁दाहिने	-12466
▁formation	-12467
▁commission	-12468
▁wrongdoers	-12469
▁contributions	-12470
प्रद	-12471
▁sor	-12472
▁तिल	-12473
▁arbit	-12474
▁Narendra	-12475
▁starting	-12476
▁व्यवस्थित	-12477
alam	-12478
▁Gan	-12479
▁एल्	-12480
▁बंदर	-12481
▁Chrome	-12482
▁survey	-12483
▁संतुलन	-12484
▁वनस्पति	-12485
▁allowance	-12486
▁belonging	-12487
gor	-12488
▁Kor	-12489
▁वसू	-12490
▁cool	-12491
▁sees	-12492
▁एजेंस	-12493
▁sexual	-12494
▁कमज़ोर	-12495
▁टर्मिन	-12496
▁निष्ठा	-12497
▁proposal	-12498
्यक	-12499
▁Lal	-12500
▁खात	-12501
▁Init	-12502
▁Video	-12503
▁अंकित	-12504
▁strive	-12505
▁explain	-12506
द्दीन	-12507
▁aspir	-12508
▁प्रसाद	-12509
▁refused	-12510
▁उल्लिखित	-12511
▁समुदायों	-12512
▁chargeable	-12513
▁distinguished	-12514
PRO	-12515
ंदगी	-12516
चन्द	-12517
पत्ति	-12518
▁offers	-12519
▁कोशिकाओं	-12520
▁Scheduled	-12521
col	-12522
hel	-12523
edia	-12524
स्‍त	-12525
▁flower	-12526
▁impart	-12527
▁प्रतिदिन	-12528
▁opposition	-12529
▁जाह	-12530
▁सरी	-12531
▁सच्ची	-12532
▁Access	-12533
▁directed	-12534
▁क्रियान्व	-12535
केल	-12536
enous	-12537
▁1948	-12538
▁कारक	-12539
▁दर्जे	-12540
▁Related	-12541
▁composed	-12542
)!	-12543
▁2)	-12544
रखाव	-12545
▁आकलन	-12546
▁Award	-12547
▁absor	-12548
▁tools	-12549
▁transp	-12550
तापूर्वक	-12551
▁विश्वसनीय	-12552
▁architecture	-12553
खों	-12554
पीएस	-12555
▁भंग	-12556
▁Tele	-12557
▁pregn	-12558
▁डालते	-12559
▁owners	-12560
▁वस्तुत	-12561
▁दुर्भाग्य	-12562
▁proportion	-12563
▁transactions	-12564
ट्स	-12565
▁Fa	-12566
DUCT	-12567
▁lic	-12568
▁स्वप्न	-12569
▁Apostle	-12570
▁initiated	-12571
▁Association	-12572
ORS	-12573
yal	-12574
▁solid	-12575
theists	-12576
▁Kolkata	-12577
▁calling	-12578
▁दर्शाता	-12579
oll	-12580
xic	-12581
▁hom	-12582
orter	-12583
▁पाता	-12584
▁याची	-12585
▁wicked	-12586
▁परिचित	-12587
▁customer	-12588
▁Dar	-12589
▁Light	-12590
▁प्रको	-12591
▁प्रांत	-12592
▁Pacific	-12593
▁wherever	-12594
देशी	-12595
सम्बर	-12596
▁colon	-12597
▁dynam	-12598
issions	-12599
▁quickly	-12600
▁Mohammed	-12601
▁speaking	-12602
▁improvement	-12603
ग्न	-12604
षद्	-12605
ैंक	-12606
उसके	-12607
▁Has	-12608
क्राम	-12609
▁deed	-12610
▁क्लि	-12611
▁हलाल	-12612
coming	-12613
्रेडिट	-12614
▁equity	-12615
▁update	-12616
▁Further	-12617
▁digital	-12618
कलाप	-12619
▁tro	-12620
othes	-12621
▁radio	-12622
▁अभिगम	-12623
▁आँखों	-12624
▁मंजूरी	-12625
▁tourism	-12626
▁ग्राहकों	-12627
▁नामः	-12628
▁Jesus	-12629
▁towns	-12630
▁क्रमा	-12631
▁Mughal	-12632
▁border	-12633
▁specify	-12634
▁Economic	-12635
90	-12636
gent	-12637
वीडी	-12638
▁अफग	-12639
▁यानी	-12640
▁perce	-12641
▁believes	-12642
_01.	-12643
स्टी	-12644
▁झों	-12645
▁आखिर	-12646
▁विभेद	-12647
▁stones	-12648
▁मिश्रण	-12649
▁dealing	-12650
▁Industry	-12651
▁prostrate	-12652
तन्य	-12653
▁आँक	-12654
▁रखती	-12655
▁Joint	-12656
▁Deputy	-12657
▁निकाले	-12658
▁65	-12659
▁बडी	-12660
▁शोर	-12661
pring	-12662
▁steel	-12663
▁कामया	-12664
▁twelve	-12665
▁स्तरों	-12666
▁अलबत्ता	-12667
▁गांधीजी	-12668
▁Software	-12669
urb	-12670
▁Fr	-12671
▁जमी	-12672
orthy	-12673
▁हमला	-12674
▁prove	-12675
▁promoting	-12676
oding	-12677
▁Plug	-12678
▁मक्का	-12679
aration	-12680
▁fought	-12681
▁beneath	-12682
▁Bangladesh	-12683
टेल	-12684
बारी	-12685
▁12.	-12686
▁Mac	-12687
▁हमे	-12688
▁Hand	-12689
▁विनय	-12690
▁Status	-12691
▁पीड़ित	-12692
▁यथार्थ	-12693
▁Province	-12694
▁explained	-12695
OME	-12696
iplom	-12697
वाहित	-12698
▁Urdu	-12699
▁गुणा	-12700
▁प्रयोक्ता	-12701
▁sustainable	-12702
▁instructions	-12703
▁vig	-12704
▁नाइ	-12705
▁core	-12706
▁राजक	-12707
▁लानत	-12708
▁स्टेट	-12709
▁आह्वान	-12710
▁हाज़िर	-12711
▁council	-12712
▁sincere	-12713
▁admitted	-12714
▁प्रश्नों	-12715
▁hypocrites	-12716
abet	-12717
गोलिक	-12718
▁clay	-12719
▁कर्ण	-12720
▁Trade	-12721
▁theirs	-12722
▁pension	-12723
कन	-12724
END	-12725
ण्ट	-12726
मुच	-12727
▁Sl	-12728
▁पाकी	-12729
▁सीखने	-12730
▁career	-12731
▁railway	-12732
▁recited	-12733
▁remaining	-12734
धारित	-12735
▁Chen	-12736
▁Pras	-12737
▁Rece	-12738
▁औजार	-12739
▁Build	-12740
▁संभाल	-12741
▁Garden	-12742
▁Sardar	-12743
▁befall	-12744
▁happens	-12745
▁Insurance	-12746
time	-12747
फेसर	-12748
मुझे	-12749
▁खतरे	-12750
▁क्रमशः	-12751
▁Persian	-12752
▁Through	-12753
▁विभागों	-12754
▁जुड़	-12755
▁गुणों	-12756
▁conven	-12757
▁tribal	-12758
▁कलाकार	-12759
▁Schedule	-12760
▁व्यापारी	-12761
▁सम्पत्ति	-12762
▁Something	-12763
भौ	-12764
बों	-12765
▁पढ	-12766
▁बेट	-12767
▁race	-12768
remony	-12769
▁bones	-12770
▁delib	-12771
▁glory	-12772
▁scope	-12773
▁मान्य	-12774
▁Jawahar	-12775
▁गतिविधि	-12776
चु	-12777
सिंह	-12778
▁Tar	-12779
▁पोल	-12780
▁Unit	-12781
▁बोला	-12782
▁invited	-12783
▁श्रीमती	-12784
▁Christians	-12785
िद	-12786
ूकता	-12787
agers	-12788
▁बिता	-12789
earing	-12790
▁soldiers	-12791
aud	-12792
oes	-12793
पाई	-12794
▁sam	-12795
▁कहां	-12796
▁Never	-12797
▁owner	-12798
▁क़ाबू	-12799
▁जितने	-12800
▁leaving	-12801
▁आदमियों	-12802
▁Mahabhar	-12803
withstanding	-12804
¥	-12805
▁Keep	-12806
▁LDAP	-12807
▁bone	-12808
▁pane	-12809
▁गुरू	-12810
▁मधुम	-12811
fortun	-12812
▁renew	-12813
▁asking	-12814
▁render	-12815
पैग़म्बर	-12816
tic	-12817
णिक	-12818
▁भूत	-12819
▁रोगों	-12820
▁लगाते	-12821
▁Common	-12822
▁Editor	-12823
▁घनिष्ठ	-12824
▁डिग्री	-12825
▁विवरणी	-12826
▁संभवतः	-12827
▁exports	-12828
▁trouble	-12829
▁रिकॉर्ड	-12830
▁Document	-12831
▁hur	-12832
itory	-12833
▁Geor	-12834
▁rising	-12835
▁अमरीका	-12836
▁Israeli	-12837
▁revenue	-12838
▁respectively	-12839
दादा	-12840
▁अहं	-12841
▁असली	-12842
▁राहे	-12843
▁स्वि	-12844
▁stick	-12845
▁thread	-12846
▁accompl	-12847
▁प्रतिलि	-12848
▁अनुमोदित	-12849
▁पुस्तकें	-12850
▁judgement	-12851
▁प्रासंगिक	-12852
डीई	-12853
that	-12854
▁unp	-12855
▁holy	-12856
▁actor	-12857
▁एजेंसी	-12858
LS	-12859
▁bag	-12860
▁pull	-12861
▁अक्ट	-12862
uality	-12863
▁सूचित	-12864
▁obtain	-12865
▁जर्मनी	-12866
▁immediate	-12867
▁Look	-12868
▁palm	-12869
▁evolution	-12870
छो	-12871
कर्म	-12872
▁hat	-12873
र्वेद	-12874
▁1996	-12875
▁Full	-12876
▁flat	-12877
▁कैसी	-12878
स्परिक	-12879
▁हार्ड	-12880
▁लेखकों	-12881
▁writers	-12882
▁क्रेडिट	-12883
▁प्रभार्य	-12884
▁न्यायालयों	-12885
षे	-12886
▁ves	-12887
▁गंत	-12888
▁डूब	-12889
▁नरे	-12890
▁Note	-12891
▁depth	-12892
▁twice	-12893
▁satisfied	-12894
▁गुज़	-12895
▁split	-12896
▁तीर्थ	-12897
▁recite	-12898
▁tissue	-12899
▁संपन्न	-12900
▁सिद्धान्त	-12901
cts	-12902
▁फौ	-12903
aved	-12904
उनकी	-12905
नहीं	-12906
▁spr	-12907
▁माय	-12908
▁Babu	-12909
▁उग्र	-12910
▁जंगल	-12911
▁चलाया	-12912
▁प्रजनन	-12913
ार्थियों	-12914
▁overall	-12915
▁पुकारते	-12916
▁सम्बन्धित	-12917
लांग	-12918
▁adj	-12919
▁औषध	-12920
▁सिं	-12921
inter	-12922
▁breed	-12923
▁crisis	-12924
▁recognition	-12925
र्जन	-12926
▁चावल	-12927
▁क़ादिर	-12928
▁चैतन्य	-12929
pes	-12930
▁KDE	-12931
▁लार	-12932
▁cere	-12933
▁कट्ट	-12934
▁साहब	-12935
▁मिस्र	-12936
▁मुताब	-12937
▁उपायों	-12938
▁invalid	-12939
▁किन्हीं	-12940
▁drinking	-12941
▁contribute	-12942
osa	-12943
▁(5	-12944
▁घुट	-12945
▁Noble	-12946
▁drown	-12947
▁पक्षी	-12948
▁counsel	-12949
▁प्रशांत	-12950
▁framework	-12951
▁contemporary	-12952
▁cra	-12953
▁करम	-12954
▁नवी	-12955
लियों	-12956
▁wear	-12957
▁निधन	-12958
▁index	-12959
▁spect	-12960
▁संपदा	-12961
▁ग्रस्त	-12962
▁भौगोलिक	-12963
▁offering	-12964
▁विद्वानों	-12965
ल्य	-12966
▁धा	-12967
illa	-12968
ल्लम	-12969
वेशन	-12970
▁hen	-12971
▁ईरान	-12972
▁detailed	-12973
तब	-12974
oval	-12975
पोर्ट	-12976
ब्रेरी	-12977
▁Shiva	-12978
▁drama	-12979
▁layer	-12980
▁अंग्रेज	-12981
▁जवाहरलाल	-12982
मौ	-12983
▁{1}	-12984
▁rect	-12985
▁अमान	-12986
▁एकदम	-12987
▁कृति	-12988
▁तात्	-12989
▁शांत	-12990
▁Disable	-12991
▁राजभाषा	-12992
▁communications	-12993
ाफ	-12994
ads	-12995
ासा	-12996
▁शराब	-12997
▁Later	-12998
▁तसबीह	-12999
▁pieces	-13000
▁answered	-13001
▁Ans	-13002
▁tea	-13003
inder	-13004
विष्ट	-13005
▁1980	-13006
father	-13007
▁सर्वि	-13008
▁प्रशास	-13009
▁facilitate	-13010
वाँ	-13011
ायें	-13012
▁Vol	-13013
▁bug	-13014
कियों	-13015
▁Take	-13016
▁ज़बर	-13017
▁Table	-13018
▁depends	-13019
▁harvest	-13020
▁employed	-13021
▁component	-13022
▁neighbour	-13023
Ad	-13024
kan	-13025
mic	-13026
कना	-13027
विन	-13028
ीदा	-13029
▁खज	-13030
▁era	-13031
▁icon	-13032
▁आश्र	-13033
▁labor	-13034
▁lying	-13035
▁Except	-13036
▁tongue	-13037
▁वरीयता	-13038
▁settlement	-13039
▁personality	-13040
▁कस	-13041
room	-13042
काया	-13043
न्तर	-13044
भक्त	-13045
▁map	-13046
▁(200	-13047
▁legs	-13048
▁रिज़	-13049
▁आंशिक	-13050
▁उतारी	-13051
▁stayed	-13052
▁अर्पित	-13053
▁trading	-13054
▁आरक्षित	-13055
▁distributed	-13056
▁लोकतांत्रिक	-13057
▁availability	-13058
▁तम	-13059
▁shar	-13060
▁दार्	-13061
▁भरें	-13062
ensity	-13063
▁उर्दू	-13064
▁लिखते	-13065
▁हजारों	-13066
▁continues	-13067
काएँ	-13068
▁टाल	-13069
▁डिब	-13070
▁Army	-13071
▁कृपा	-13072
▁प्रोफेसर	-13073
▁understood	-13074
▁प्रस्तावित	-13075
▁\	-13076
AGE	-13077
▁Lt	-13078
▁रॉ	-13079
ooth	-13080
▁BAR	-13081
▁Rab	-13082
▁hyd	-13083
▁टेक्	-13084
Indeed	-13085
▁सचमुच	-13086
▁भगवान्	-13087
▁प्रतिमा	-13088
▁kn	-13089
जीवी	-13090
algam	-13091
▁Term	-13092
▁दुःख	-13093
▁alarm	-13094
▁वर्मा	-13095
▁वसूली	-13096
version	-13097
▁Madhya	-13098
▁Member	-13099
▁couple	-13100
▁तत्त्व	-13101
▁intended	-13102
▁restrict	-13103
ona	-13104
rer	-13105
केंड	-13106
▁Dur	-13107
▁Main	-13108
▁ends	-13109
▁ज्यो	-13110
दायित्व	-13111
ोक्ताओं	-13112
▁firmly	-13113
▁मज़बूत	-13114
▁behaviour	-13115
▁revelation	-13116
आरए	-13117
▁43	-13118
list	-13119
व्यों	-13120
▁shop	-13121
▁Local	-13122
▁chain	-13123
▁दुकान	-13124
▁लिखना	-13125
▁preview	-13126
▁अक्टूबर	-13127
▁संलग्नक	-13128
▁फलस्वरूप	-13129
ds	-13130
ords	-13131
▁पूज	-13132
▁बरस	-13133
▁डाली	-13134
▁Malay	-13135
▁प्राप	-13136
▁affair	-13137
▁waters	-13138
▁संगणना	-13139
▁equality	-13140
बिल	-13141
▁1'	-13142
▁जॉ	-13143
anka	-13144
▁मक़	-13145
▁टाइप	-13146
▁thick	-13147
▁गर्मी	-13148
edience	-13149
▁acknow	-13150
▁वैकल्प	-13151
▁desired	-13152
▁consumer	-13153
▁पथभ्रष्ट	-13154
▁Assessing	-13155
▁कम्प्यूटर	-13156
हारी	-13157
▁400	-13158
Moses	-13159
owing	-13160
▁flood	-13161
▁उठाना	-13162
▁appell	-13163
▁hardly	-13164
▁शेयरों	-13165
▁regarded	-13166
▁solutions	-13167
▁wa	-13168
ayer	-13169
▁ज्व	-13170
ushed	-13171
ष्कार	-13172
▁clouds	-13173
▁shaped	-13174
▁अभ्यास	-13175
▁सेक्टर	-13176
▁arising	-13177
▁judicial	-13178
OV	-13179
mun	-13180
▁(0	-13181
care	-13182
riya	-13183
लेखन	-13184
▁अद्व	-13185
▁जाया	-13186
▁अपराधी	-13187
▁नदियों	-13188
▁charity	-13189
▁repeated	-13190
▁celebrated	-13191
jan	-13192
एमई	-13193
गुण	-13194
urally	-13195
▁दीजिए	-13196
▁afflict	-13197
▁conceal	-13198
▁derived	-13199
▁sisters	-13200
▁communal	-13201
▁अधिकारिता	-13202
▁ष	-13203
ded	-13204
▁Upd	-13205
▁Vir	-13206
▁आपसी	-13207
▁करेंः	-13208
▁दशकों	-13209
ishment	-13210
▁slight	-13211
▁evident	-13212
▁hardship	-13213
ruit	-13214
▁rub	-13215
▁gift	-13216
▁किले	-13217
▁Green	-13218
▁जागरूकता	-13219
▁वैकल्पिक	-13220
DR	-13221
On	-13222
ेड	-13223
ेस	-13224
नेह	-13225
▁Ra	-13226
lock	-13227
▁Oft	-13228
▁अहि	-13229
▁खबर	-13230
▁जैन	-13231
▁मेह	-13232
▁gall	-13233
▁प्लस	-13234
▁मोटर	-13235
▁सेंट	-13236
▁आंकड़ा	-13237
▁पुराना	-13238
▁इकाइयों	-13239
▁computing	-13240
▁religions	-13241
▁पारस्परिक	-13242
उसकी	-13243
▁अमर	-13244
▁उपज	-13245
ector	-13246
▁ties	-13247
▁झूठे	-13248
▁Email	-13249
▁ships	-13250
▁Comput	-13251
▁आधारभूत	-13252
▁definite	-13253
▁interested	-13254
▁वास्तविकता	-13255
▁arrangement	-13256
key	-13257
ming	-13258
शोधन	-13259
▁Sem	-13260
▁Priv	-13261
▁eggs	-13262
▁lamp	-13263
▁अर्ज	-13264
▁शासक	-13265
▁Liter	-13266
▁seeds	-13267
▁विवेक	-13268
▁दुश्मन	-13269
▁Himself	-13270
▁database	-13271
▁translated	-13272
▁तृ	-13273
hetic	-13274
▁पड़ो	-13275
▁अर्जन	-13276
▁रामायण	-13277
▁customers	-13278
▁intelligence	-13279
Who	-13280
ulty	-13281
▁POP	-13282
▁pert	-13283
▁अतीत	-13284
▁Innov	-13285
▁stake	-13286
▁निगाह	-13287
▁फायदे	-13288
▁लड़का	-13289
compass	-13290
▁driven	-13291
▁हिमाचल	-13292
▁diverse	-13293
▁difficulty	-13294
▁comprehensive	-13295
Why	-13296
्रीम	-13297
▁वेद	-13298
▁2018	-13299
▁चलती	-13300
▁grain	-13301
▁acquisition	-13302
समा	-13303
garh	-13304
चेंज	-13305
्‍या	-13306
▁Deb	-13307
▁होगे	-13308
▁alive	-13309
▁भांति	-13310
▁वैदिक	-13311
ानिस्तान	-13312
▁apparent	-13313
▁buildings	-13314
▁traditions	-13315
▁देशवासियों	-13316
75	-13317
पद	-13318
सास	-13319
▁Run	-13320
▁ease	-13321
▁लिपि	-13322
ounded	-13323
▁बेटों	-13324
▁strategy	-13325
▁पूर्ववर्ती	-13326
tr	-13327
iri	-13328
हक़	-13329
▁'.	-13330
appe	-13331
इयां	-13332
▁fet	-13333
▁पनाह	-13334
▁भक्त	-13335
क्तियों	-13336
▁फोल्डर	-13337
▁दिसम्बर	-13338
▁guidelines	-13339
▁11.	-13340
▁hit	-13341
inces	-13342
▁Card	-13343
▁Gold	-13344
▁आपदा	-13345
▁Anjuta	-13346
▁persist	-13347
▁उत्पादक	-13348
▁suggested	-13349
▁worshipped	-13350
▁घेर	-13351
▁doll	-13352
▁ग्रे	-13353
▁बनना	-13354
▁दूँगा	-13355
▁crores	-13356
▁सहयोगी	-13357
▁दिखायें	-13358
▁Buddhist	-13359
▁hun	-13360
▁अखिल	-13361
▁विजे	-13362
▁Laksh	-13363
▁तीनों	-13364
▁detail	-13365
▁सम्राट	-13366
▁Friends	-13367
▁servant	-13368
▁पसंदीदा	-13369
▁efficiency	-13370
▁व्यावहारिक	-13371
बाई	-13372
▁Due	-13373
▁गईं	-13374
ख्वाह	-13375
ालयों	-13376
▁sets	-13377
▁होगें	-13378
▁संगठित	-13379
▁collected	-13380
▁प्रोटोकॉल	-13381
▁अरु	-13382
▁आशय	-13383
▁span	-13384
▁symp	-13385
▁हलाक	-13386
▁उत्तेज	-13387
▁overcome	-13388
▁विज्ञप्ति	-13389
irs	-13390
▁अलं	-13391
▁रहम	-13392
▁लिप	-13393
▁कहें	-13394
▁budget	-13395
▁naught	-13396
esterday	-13397
▁आतंकवादी	-13398
▁improving	-13399
HT	-13400
NA	-13401
▁AN	-13402
what	-13403
▁bat	-13404
▁सिक	-13405
ब्ल्यू	-13406
▁observe	-13407
▁अधिसूचित	-13408
▁उपलब्धता	-13409
▁estimated	-13410
▁preferred	-13411
▁प्रतिष्ठा	-13412
▁6,	-13413
▁तद	-13414
▁नज	-13415
▁Lat	-13416
साइटी	-13417
▁fram	-13418
▁डालने	-13419
▁entrust	-13420
▁achievement	-13421
ECT	-13422
पेश	-13423
▁Ja	-13424
भूषण	-13425
लामी	-13426
▁आएँ	-13427
्रेता	-13428
▁Land	-13429
▁फसलों	-13430
▁योजनाएं	-13431
▁उन्होनें	-13432
गीय	-13433
साई	-13434
▁आधा	-13435
▁Tell	-13436
▁onto	-13437
▁Count	-13438
▁साधनों	-13439
▁discussed	-13440
▁enjoyment	-13441
¥	-13442
iel	-13443
▁ISO	-13444
▁fix	-13445
▁pit	-13446
▁अजी	-13447
▁समू	-13448
▁Test	-13449
▁पृथक	-13450
▁सिरे	-13451
▁hills	-13452
▁Academ	-13453
▁Window	-13454
▁victim	-13455
▁numerous	-13456
asp	-13457
भाषण	-13458
▁dan	-13459
▁झील	-13460
▁busy	-13461
▁exch	-13462
▁Being	-13463
▁Afghanistan	-13464
arh	-13465
वही	-13466
जनों	-13467
▁Lot	-13468
▁इंत	-13469
▁ख़ा	-13470
rahim	-13471
ड़ीसा	-13472
▁चढ़ा	-13473
▁हटाने	-13474
▁Credit	-13475
▁begins	-13476
▁गारंटी	-13477
▁अंग्रेजों	-13478
▁repentance	-13479
ny	-13480
ेंड	-13481
▁मण	-13482
iger	-13483
opal	-13484
▁सकल	-13485
▁आएगी	-13486
▁गद्य	-13487
▁अंततः	-13488
▁प्लेट	-13489
▁judges	-13490
▁अपनाने	-13491
▁advised	-13492
▁कार्यरत	-13493
▁सत्यापित	-13494
▁Palestinian	-13495
iche	-13496
▁Spec	-13497
▁clust	-13498
otes	-13499
▁1991	-13500
▁grew	-13501
▁roads	-13502
▁spite	-13503
▁facing	-13504
बाही	-13505
ुमान	-13506
▁सड़	-13507
▁पैसा	-13508
▁बनता	-13509
▁filed	-13510
▁floor	-13511
▁चुकता	-13512
▁Houses	-13513
▁forests	-13514
▁expansion	-13515
▁गढ़	-13516
नीतिक	-13517
▁प्रॉ	-13518
▁वन्य	-13519
▁outer	-13520
▁एहसान	-13521
▁Annual	-13522
▁चीज़ें	-13523
▁प्रतिबि	-13524
45	-13525
ums	-13526
०००	-13527
▁असल	-13528
बरदार	-13529
▁समूद	-13530
▁गंतव्य	-13531
▁दक्षता	-13532
▁देखोगे	-13533
▁शास्त्र	-13534
▁millions	-13535
▁proclaim	-13536
▁recognized	-13537
▁consumption	-13538
वत्	-13539
्टा	-13540
▁rot	-13541
▁Jain	-13542
▁Size	-13543
▁eval	-13544
▁lect	-13545
▁aband	-13546
▁allot	-13547
▁जीवों	-13548
▁flight	-13549
▁Ask	-13550
▁Bet	-13551
▁मारा	-13552
▁यहीं	-13553
▁माइक्रो	-13554
▁fib	-13555
▁भरने	-13556
▁बताता	-13557
▁भरपूर	-13558
▁Pandit	-13559
▁housing	-13560
▁सोसाइटी	-13561
▁प्रमाणित	-13562
▁integrated	-13563
▁प्रावधानों	-13564
izer	-13565
▁सूच	-13566
iliar	-13567
▁pick	-13568
ashing	-13569
icipal	-13570
▁पहलुओं	-13571
▁साक्षी	-13572
▁permitted	-13573
▁कार्यालयों	-13574
▁considerable	-13575
▁fle	-13576
ंक्शन	-13577
▁David	-13578
▁Global	-13579
▁linked	-13580
▁Profess	-13581
▁telephone	-13582
▁inspiration	-13583
ITY	-13584
ker	-13585
utt	-13586
▁vit	-13587
▁तेरा	-13588
▁संधि	-13589
▁तीसरा	-13590
▁masses	-13591
▁हथियार	-13592
▁Germany	-13593
▁व्यष्टि	-13594
▁imperial	-13595
▁improved	-13596
▁impossible	-13597
oli	-13598
▁Get	-13599
▁Pad	-13600
क्तिक	-13601
▁Road	-13602
▁मुल्क	-13603
▁क्रांतिक	-13604
▁highlight	-13605
▁investments	-13606
आत	-13607
ota	-13608
ंबे	-13609
▁हकदार	-13610
▁Commer	-13611
▁फरमाया	-13612
▁सम्पन्न	-13613
▁—	-13614
nan	-13615
▁बडे	-13616
▁Tham	-13617
▁phen	-13618
inance	-13619
▁Earth	-13620
▁pious	-13621
ificial	-13622
inating	-13623
▁mailing	-13624
▁प्रभावशाली	-13625
17	-13626
▁du	-13627
हरों	-13628
▁Left	-13629
दनी	-13630
उनके	-13631
▁buff	-13632
▁इरादा	-13633
welling	-13634
▁decree	-13635
▁felicitations	-13636
बहुत	-13637
▁Chait	-13638
▁stages	-13639
▁तथ्यों	-13640
▁सुन्दर	-13641
▁offence	-13642
▁meetings	-13643
▁reasonable	-13644
▁परिवर्तनों	-13645
.05	-13646
eer	-13647
▁Ce	-13648
----	-13649
▁झूठा	-13650
pelled	-13651
▁curse	-13652
▁signature	-13653
▁Dal	-13654
▁तुझ	-13655
entle	-13656
▁agent	-13657
▁observ	-13658
▁क़समें	-13659
▁दोज़ख़	-13660
▁सन्देह	-13661
▁Accounts	-13662
▁Committees	-13663
▁attachment	-13664
▁completion	-13665
24	-13666
YS	-13667
▁Dig	-13668
▁डिप	-13669
house	-13670
▁ईंधन	-13671
▁कट्टर	-13672
▁aggreg	-13673
▁spoken	-13674
▁vessel	-13675
▁yellow	-13676
▁amalgam	-13677
▁deposits	-13678
▁identify	-13679
▁आस्तियों	-13680
ारण	-13681
atar	-13682
र्ता	-13683
▁shel	-13684
▁वाहन	-13685
▁शंकर	-13686
▁लाभों	-13687
▁Energy	-13688
▁talking	-13689
▁worldly	-13690
▁राष्ट्रों	-13691
▁regulations	-13692
ण्	-13693
och	-13694
चाह	-13695
▁Jay	-13696
▁raw	-13697
▁ढूँ	-13698
त्रिम	-13699
तन्त्र	-13700
ributes	-13701
▁commence	-13702
▁excellence	-13703
)]	-13704
जत	-13705
वास्त	-13706
▁toler	-13707
▁जानना	-13708
▁मतभेद	-13709
▁बहादुर	-13710
▁Kingdom	-13711
▁Tourism	-13712
▁guardian	-13713
▁Similarly	-13714
आउट	-13715
थित	-13716
लाइ	-13717
anga	-13718
life	-13719
▁हां	-13720
▁कचरा	-13721
▁राज़ी	-13722
▁prohib	-13723
▁दार्शन	-13724
▁बिन्दु	-13725
▁disobey	-13726
▁पाकीज़ा	-13727
▁emphasis	-13728
▁प्रतिदान	-13729
▁steadfast	-13730
18	-13731
39	-13732
SA	-13733
एव	-13734
uru	-13735
▁पेय	-13736
▁audit	-13737
▁harmony	-13738
▁incurred	-13739
▁दस्तावेजों	-13740
asw	-13741
िरण	-13742
ोरि	-13743
pens	-13744
▁surg	-13745
▁Asian	-13746
▁adorn	-13747
▁armed	-13748
▁कीटों	-13749
justice	-13750
▁street	-13751
▁describ	-13752
▁स्रोतों	-13753
▁criminal	-13754
Be	-13755
राय	-13756
▁(10	-13757
▁Saty	-13758
▁दिमाग	-13759
▁Temple	-13760
▁acting	-13761
▁breath	-13762
▁farmer	-13763
▁अधिकृत	-13764
▁empower	-13765
▁willing	-13766
▁discharge	-13767
.2017	-13768
▁edge	-13769
▁कारा	-13770
▁Gupta	-13771
▁Integr	-13772
▁helper	-13773
▁टर्मिनल	-13774
▁आकांक्षा	-13775
▁55	-13776
▁via	-13777
▁zone	-13778
▁रहित	-13779
▁लंदन	-13780
▁लेबल	-13781
▁Level	-13782
▁sites	-13783
▁बताते	-13784
▁Follow	-13785
▁स्तरीय	-13786
▁Whatever	-13787
ँग	-13788
icent	-13789
orous	-13790
▁thor	-13791
▁मोड़	-13792
jection	-13793
▁Master	-13794
▁ठहराया	-13795
▁respite	-13796
▁लक्ष्यों	-13797
,–	-13798
ua	-13799
pat	-13800
umes	-13801
▁Rev	-13802
▁Tor	-13803
▁बेर	-13804
ected	-13805
▁Gree	-13806
▁उभार	-13807
▁मेहन	-13808
lement	-13809
▁idols	-13810
▁mirac	-13811
▁ratio	-13812
▁demands	-13813
▁पेट्रोल	-13814
▁remembrance	-13815
▁organisations	-13816
दूत	-13817
र्फ़	-13818
▁भूख	-13819
▁1997	-13820
▁Appe	-13821
▁गिनती	-13822
▁श्वेत	-13823
▁rebell	-13824
▁quantity	-13825
▁continuous	-13826
▁conservation	-13827
¥	-13828
ador	-13829
iciary	-13830
▁crime	-13831
▁noble	-13832
▁उन्हे	-13833
▁भाग्य	-13834
विश्वास	-13835
▁warned	-13836
▁Cabinet	-13837
▁Calendar	-13838
▁ब्राह्मण	-13839
▁भव	-13840
mits	-13841
ुद्ध	-13842
ether	-13843
▁Phot	-13844
▁आईडी	-13845
▁बचने	-13846
▁mixed	-13847
▁रोकते	-13848
▁propag	-13849
▁starts	-13850
▁अंशदान	-13851
▁मुहम्मद	-13852
▁शीर्षिका	-13853
▁साझेदारी	-13854
ographical	-13855
▁faithless	-13856
▁constructed	-13857
?'	-13858
संख	-13859
पसंद	-13860
▁वाम	-13861
rease	-13862
ureau	-13863
▁आयकर	-13864
▁कमाई	-13865
▁गणित	-13866
▁Ambed	-13867
▁reprodu	-13868
▁कृतज्ञता	-13869
CS	-13870
▁बट	-13871
otal	-13872
▁mov	-13873
▁घास	-13874
जहन्न	-13875
सूत्र	-13876
▁ख़ौफ	-13877
वृद्धि	-13878
▁stamp	-13879
▁rulers	-13880
▁stored	-13881
▁खिलाड़ी	-13882
▁नकारात्मक	-13883
▁व्यापारिक	-13884
▁प्रतिबद्धता	-13885
▁representative	-13886
परा	-13887
▁टीका	-13888
▁भुला	-13889
▁बालों	-13890
▁Police	-13891
▁liberal	-13892
▁Ambedkar	-13893
▁interface	-13894
▁Jawaharlal	-13895
¤	-13896
aks	-13897
टिक	-13898
▁8,	-13899
▁दम	-13900
▁Equ	-13901
▁Fed	-13902
anath	-13903
▁None	-13904
▁impr	-13905
▁लाखों	-13906
▁डीवीडी	-13907
▁Subject	-13908
▁विचारधारा	-13909
itya	-13910
▁नकद	-13911
▁बहन	-13912
▁encry	-13913
▁समापन	-13914
▁परोक्ष	-13915
▁विडियो	-13916
▁Capital	-13917
▁paramet	-13918
▁फ़ाइलों	-13919
▁सलाहकार	-13920
▁स्वाधीन	-13921
▁अध्यक्षता	-13922
▁कार्यान्वित	-13923
ued	-13924
स्सा	-13925
पुरुष	-13926
▁भाइयों	-13927
▁violent	-13928
▁कानूनों	-13929
▁ख्वाहिश	-13930
▁disabled	-13931
▁irrigation	-13932
ंसक	-13933
▁वय	-13934
▁उलट	-13935
▁घात	-13936
organ	-13937
ranch	-13938
▁अपनाई	-13939
▁पुरूष	-13940
▁प्रबल	-13941
निर्माण	-13942
▁Online	-13943
▁allows	-13944
▁encompass	-13945
▁appearance	-13946
▁remarkable	-13947
▁whomsoever	-13948
▁उत्तरदायित्व	-13949
yas	-13950
क्ल	-13951
मरा	-13952
▁पचास	-13953
ounter	-13954
▁goals	-13955
▁ocean	-13956
PRODUCT	-13957
▁dispos	-13958
▁सारांश	-13959
▁touched	-13960
▁departments	-13961
इंड	-13962
कने	-13963
ियॉ	-13964
▁(*	-13965
▁1)	-13966
▁खर	-13967
▁पश	-13968
▁Bra	-13969
▁गीता	-13970
▁नर्म	-13971
▁पीछा	-13972
▁भाष्	-13973
▁राज़	-13974
ाधिकार	-13975
▁marks	-13976
▁ज्योति	-13977
▁मंत्रि	-13978
▁रचनात्मक	-13979
▁complaint	-13980
▁electronic	-13981
rum	-13982
▁होटल	-13983
▁defin	-13984
▁समझना	-13985
▁eastern	-13986
▁pointed	-13987
▁prepare	-13988
▁केंद्रों	-13989
▁satisfaction	-13990
कंप	-13991
लीन	-13992
▁bh	-13993
asty	-13994
▁बलि	-13995
▁मेघ	-13996
etary	-13997
संचार	-13998
▁acid	-13999
▁Manager	-14000
▁windows	-14001
ikh	-14002
lin	-14003
क़े	-14004
▁ho	-14005
odal	-14006
▁फुट	-14007
▁वसी	-14008
▁baby	-14009
▁vacc	-14010
▁पाना	-14011
▁नमूना	-14012
▁valley	-14013
▁Knowledge	-14014
▁voluntary	-14015
भोग	-14016
ocks	-14017
▁tag	-14018
▁पडे	-14019
ानिर्	-14020
▁hast	-14021
▁meat	-14022
▁टिकट	-14023
▁वांछ	-14024
▁चेन्न	-14025
▁college	-14026
▁involve	-14027
▁अनुक्रम	-14028
▁वस्तुएं	-14029
▁Himachal	-14030
▁notified	-14031
▁productivity	-14032
▁sed	-14033
▁scen	-14034
▁subt	-14035
▁अपार	-14036
▁चोरी	-14037
▁सीता	-14038
▁GNOME	-14039
▁अस्थि	-14040
▁पिछला	-14041
ॉग	-14042
aren	-14043
पर्य	-14044
▁Sab	-14045
▁ट्यूब	-14046
▁किराये	-14047
▁ensuring	-14048
▁transmission	-14049
बीन	-14050
▁rou	-14051
▁sav	-14052
▁van	-14053
▁ईंट	-14054
▁घाट	-14055
▁dawn	-14056
▁श्रो	-14057
▁कोर्ट	-14058
▁Connect	-14059
▁संक्रिया	-14060
▁securities	-14061
ेंच	-14062
ापरी	-14063
▁TRAN	-14064
▁doom	-14065
▁करूँ	-14066
▁सूरज	-14067
जीविका	-14068
▁पड़ते	-14069
▁पड़ने	-14070
▁struck	-14071
▁आख़ेरत	-14072
▁उड़ीसा	-14073
ellation	-14074
▁Bharati	-14075
▁प्रवासी	-14076
▁सौभाग्य	-14077
▁duration	-14078
▁personnel	-14079
▁difficulties	-14080
”;	-14081
लोक	-14082
▁Jh	-14083
▁टि	-14084
▁Way	-14085
uddin	-14086
▁Democ	-14087
▁older	-14088
▁बाक़ी	-14089
▁महानि	-14090
▁Source	-14091
▁आकर्षण	-14092
▁मानकों	-14093
▁प्रसारण	-14094
▁External	-14095
▁superior	-14096
▁Companies	-14097
▁recognize	-14098
IB	-14099
▁पन	-14100
▁tot	-14101
▁आदर	-14102
▁जाग	-14103
▁बचे	-14104
▁१९९	-14105
▁Banks	-14106
▁camel	-14107
▁falls	-14108
▁Ibrahim	-14109
▁इंग्लैंड	-14110
▁७	-14111
▁""	-14112
▁जता	-14113
▁नाह	-14114
▁1993	-14115
▁Farm	-14116
▁elim	-14117
▁मरियम	-14118
▁spring	-14119
▁convert	-14120
▁38	-14121
आईटी	-14122
ब्बा	-14123
▁बहि	-14124
atics	-14125
imony	-14126
▁Guard	-14127
▁tender	-14128
▁लोकसभा	-14129
▁Panchay	-14130
▁अभिभाषण	-14131
▁शिक्षित	-14132
▁स्वच्छता	-14133
▁स्थितियों	-14134
▁categories	-14135
▁competition	-14136
▁Agricultural	-14137
▁determination	-14138
किस	-14139
▁Amb	-14140
▁दिश	-14141
▁Four	-14142
▁York	-14143
▁enact	-14144
▁जिलों	-14145
▁मजबूर	-14146
izontal	-14147
▁silver	-14148
▁fulfill	-14149
▁Amendment	-14150
▁requested	-14151
▁प्रतिवादी	-14152
▁interpretation	-14153
acc	-14154
▁(6)	-14155
▁ब्रे	-14156
▁यहूद	-14157
▁वृत्ति	-14158
▁theatre	-14159
▁corporate	-14160
▁लाइब्रेरी	-14161
▁directions	-14162
’.	-14163
▁फो	-14164
तायात	-14165
▁तबाही	-14166
▁निकाह	-14167
▁पढ़ते	-14168
▁virtue	-14169
▁कुशलता	-14170
▁relatives	-14171
how	-14172
भाई	-14173
▁Od	-14174
emic	-14175
part	-14176
▁Dom	-14177
▁Tog	-14178
▁jobs	-14179
▁मौका	-14180
▁Ahmed	-14181
▁cried	-14182
▁finds	-14183
▁verse	-14184
▁कृत्रिम	-14185
▁भावनाओं	-14186
▁सुधारों	-14187
▁universe	-14188
▁anniversary	-14189
डू	-14190
ेरा	-14191
ल्ले	-14192
▁Lad	-14193
▁बिन	-14194
▁मचा	-14195
▁बर्फ	-14196
कारिता	-14197
▁aught	-14198
▁मनपसंद	-14199
▁degrees	-14200
▁herself	-14201
▁affection	-14202
ima	-14203
thi	-14204
पीसी	-14205
▁जुल	-14206
▁मला	-14207
▁भड़क	-14208
▁planned	-14209
▁देनेवाला	-14210
▁discussions	-14211
.“	-14212
anks	-14213
mail	-14214
▁इष्ट	-14215
▁Peace	-14216
▁अगरचे	-14217
▁क़रार	-14218
▁लगाकर	-14219
▁ऑफ़लाइन	-14220
▁देवताओं	-14221
▁employer	-14222
▁diversity	-14223
▁mechanism	-14224
▁participate	-14225
¤	-14226
ूनी	-14227
aron	-14228
▁सोल	-14229
शुल्क	-14230
▁खनिज	-14231
▁metal	-14232
▁आस्था	-14233
▁Territ	-14234
▁परेशान	-14235
▁trained	-14236
▁भागीदार	-14237
▁writings	-14238
▁injustice	-14239
enn	-14240
िकीय	-14241
▁jail	-14242
▁pair	-14243
▁सौंद	-14244
vation	-14245
▁Vedic	-14246
▁divers	-14247
▁occurs	-14248
▁अकादमी	-14249
▁founded	-14250
▁strengthening	-14251
DP	-14252
षी	-14253
▁ढल	-14254
▁Fac	-14255
atell	-14256
their	-14257
▁upto	-14258
▁आवरण	-14259
▁आवेद	-14260
▁चाहो	-14261
▁मेमो	-14262
▁शल्य	-14263
▁Super	-14264
▁haply	-14265
▁Filter	-14266
▁addresses	-14267
▁executive	-14268
तिल	-14269
▁7,	-14270
ुलिप	-14271
▁अटल	-14272
▁एहद	-14273
▁तदन	-14274
▁तस्	-14275
▁पुल	-14276
▁डरता	-14277
▁sympt	-14278
▁usual	-14279
▁Spirit	-14280
▁chapter	-14281
▁बेहिश्त	-14282
▁सैनिकों	-14283
▁प्राधिकृत	-14284
▁enterprise	-14285
GP	-14286
कै	-14287
हद	-14288
तेह	-14289
usal	-14290
मुना	-14291
हवीं	-14292
्राव	-14293
▁Ang	-14294
▁ढेर	-14295
▁हाइ	-14296
स्फोट	-14297
▁अंडे	-14298
▁भव्य	-14299
▁Chenn	-14300
▁निचले	-14301
▁मिलना	-14302
▁संचित	-14303
▁Screen	-14304
▁दुर्लभ	-14305
▁realize	-14306
▁यातायात	-14307
▁accommod	-14308
obe	-14309
▁gn	-14310
▁१०	-14311
olic	-14312
wers	-14313
▁पेर	-14314
icted	-14315
योग्य	-14316
संबंध	-14317
▁आईटी	-14318
▁White	-14319
▁कैंसर	-14320
▁छुट्टी	-14321
▁सच्चाई	-14322
▁स्मारक	-14323
▁जरूरतों	-14324
▁vegetables	-14325
▁अपेक्षाकृत	-14326
मस	-14327
ज़न	-14328
▁खाल	-14329
▁Cell	-14330
▁IMAP	-14331
▁Vers	-14332
▁cart	-14333
▁saving	-14334
▁नारायण	-14335
▁पहुँची	-14336
▁infection	-14337
▁righteousness	-14338
23	-14339
bre	-14340
म्पा	-14341
▁कुट	-14342
bered	-14343
▁grat	-14344
▁समेक	-14345
▁Prasad	-14346
▁palace	-14347
▁courses	-14348
▁Australia	-14349
▁एजेंसियों	-14350
Ch	-14351
शै	-14352
▁Job	-14353
iques	-14354
▁abst	-14355
▁स्तन	-14356
▁पार्ट	-14357
cession	-14358
▁breasts	-14359
▁suffered	-14360
▁दीक्षांत	-14361
▁gradually	-14362
सद	-14363
ध्व	-14364
▁CS	-14365
They	-14366
aked	-14367
ambo	-14368
काना	-14369
▁vain	-14370
व्यापी	-14371
▁socio	-14372
▁लम्बी	-14373
▁इजाज़त	-14374
▁देखेंगे	-14375
▁परिश्रम	-14376
चाप	-14377
्यूम	-14378
▁offs	-14379
▁draft	-14380
▁claimed	-14381
▁टेलीफोन	-14382
▁स्कूलों	-14383
▁liability	-14384
da	-14385
पय	-14386
ॉक्स	-14387
▁coc	-14388
▁cos	-14389
▁आवि	-14390
▁मतदान	-14391
▁domain	-14392
▁नज़दीक	-14393
▁पंजाबी	-14394
▁मानदंड	-14395
▁devoted	-14396
▁ordered	-14397
▁practical	-14398
▁prominent	-14399
बस	-14400
▁*.	-14401
ounds	-14402
tical	-14403
द्रास	-14404
▁क्रय	-14405
▁पाये	-14406
▁पूछे	-14407
urated	-14408
▁फ्रेम	-14409
▁बहुमत	-14410
▁विफलः	-14411
▁corner	-14412
▁differ	-14413
▁equals	-14414
▁प्लगिन	-14415
▁असामान्य	-14416
Al	-14417
किम	-14418
अपना	-14419
ामिन	-14420
▁Wid	-14421
▁दूँ	-14422
▁रेड	-14423
▁हैस	-14424
chron	-14425
▁Cond	-14426
▁Mode	-14427
▁News	-14428
▁park	-14429
▁हाउस	-14430
▁owned	-14431
▁पुनरा	-14432
▁condem	-14433
▁इंदिरा	-14434
▁उद्यमों	-14435
▁Ramayana	-14436
▁करनेवाली	-14437
▁Parliamentary	-14438
':%	-14439
प्ल	-14440
भास	-14441
▁Ek	-14442
▁रन	-14443
bles	-14444
uted	-14445
▁axis	-14446
▁silk	-14447
▁invent	-14448
▁ड्राइव	-14449
▁शाखाओं	-14450
▁removal	-14451
▁मोहम्मद	-14452
▁हिस्सों	-14453
▁programs	-14454
▁आत्मनिर्भर	-14455
▁प्रणालियों	-14456
Pe	-14457
ईं	-14458
णे	-14459
समझ	-14460
▁हज	-14461
▁Var	-14462
▁Vij	-14463
▁सना	-14464
▁तनाव	-14465
▁needy	-14466
▁Madras	-14467
▁प्रवर्तन	-14468
▁achievements	-14469
ृंग	-14470
▁फट	-14471
▁Cop	-14472
▁rhy	-14473
▁Guid	-14474
▁pard	-14475
▁एमएस	-14476
▁हँसी	-14477
......	-14478
▁panel	-14479
▁widely	-14480
▁पेशेवर	-14481
▁मुकदमा	-14482
▁equival	-14483
▁greatly	-14484
▁stopped	-14485
▁पूर्णतः	-14486
aze	-14487
off	-14488
ताअत	-14489
▁असी	-14490
lines	-14491
हमारी	-14492
▁Raja	-14493
▁Apart	-14494
▁उत्सव	-14495
weather	-14496
▁कार्बन	-14497
▁मरम्मत	-14498
▁Ayurved	-14499
▁विदेशों	-14500
▁elephant	-14501
UG	-14502
ारक	-14503
खुदा	-14504
पीआई	-14505
▁Kam	-14506
स्तीन	-14507
▁गर्भा	-14508
▁सारणी	-14509
ulatory	-14510
श्रेष्ठ	-14511
▁प्राणी	-14512
▁समर्पण	-14513
▁Exalted	-14514
▁पूर्णता	-14515
▁increases	-14516
▁effectively	-14517
96	-14518
oz	-14519
अन	-14520
िफ	-14521
unc	-14522
▁Eff	-14523
▁नाक	-14524
icket	-14525
शिक्ष	-14526
▁resc	-14527
▁नामा	-14528
▁हुये	-14529
orders	-14530
▁पीड़ा	-14531
▁बताने	-14532
▁निवारण	-14533
inations	-14534
▁eternal	-14535
▁resolve	-14536
▁चाहूंगा	-14537
▁संकल्पना	-14538
श्‍	-14539
▁कंध	-14540
सूचना	-14541
▁nurs	-14542
▁accum	-14543
▁liars	-14544
▁quiet	-14545
▁दिखाए	-14546
▁पाओगे	-14547
▁approx	-14548
▁ज़िक्र	-14549
▁वितरित	-14550
▁साझीदार	-14551
▁attended	-14552
▁distress	-14553
▁acceptance	-14554
CD	-14555
▁नाय	-14556
▁रिट	-14557
▁वाइ	-14558
▁हरा	-14559
▁बरकत	-14560
▁advoc	-14561
▁वैष्ण	-14562
▁इन्हीं	-14563
▁awarded	-14564
▁परंपरागत	-14565
▁arrangements	-14566
ATE	-14567
bind	-14568
निया	-14569
▁NPS	-14570
▁ran	-14571
▁खेत	-14572
aching	-14573
▁ऊँचाई	-14574
▁wholly	-14575
▁inhabit	-14576
▁accurate	-14577
▁उत्कृष्टता	-14578
▁significance	-14579
AO	-14580
yn	-14581
▁घन	-14582
down	-14583
▁(23	-14584
▁Action	-14585
▁beside	-14586
▁devices	-14587
▁streams	-14588
▁संतुष्ट	-14589
▁contributed	-14590
urse	-14591
डीएफ	-14592
▁Mir	-14593
▁कुम	-14594
▁1970	-14595
▁bell	-14596
▁boys	-14597
▁पैनल	-14598
▁बनाओ	-14599
ronics	-14600
▁इमारत	-14601
istries	-14602
reement	-14603
▁plaint	-14604
▁printed	-14605
▁assembly	-14606
▁southern	-14607
▁forwarded	-14608
▁partition	-14609
▁बम	-14610
वाणी	-14611
▁कड़	-14612
▁sake	-14613
▁चलना	-14614
▁papers	-14615
▁आंकड़े	-14616
▁गवर्नर	-14617
▁धनराशि	-14618
▁drawing	-14619
)."	-14620
AIL	-14621
▁Mor	-14622
▁dro	-14623
▁हड़	-14624
chief	-14625
▁घटित	-14626
orship	-14627
▁forty	-14628
▁glass	-14629
▁कुबूल	-14630
▁केडीई	-14631
▁तीसरी	-14632
▁disappe	-14633
▁आजीविका	-14634
▁चिकित्सक	-14635
Se	-14636
र्मी	-14637
▁(18	-14638
▁Lah	-14639
▁lev	-14640
▁जगत	-14641
▁बिग	-14642
पोरेट	-14643
▁Task	-14644
▁मंडप	-14645
▁yours	-14646
▁खातों	-14647
▁मानने	-14648
▁humble	-14649
▁शर्तें	-14650
▁pillars	-14651
▁profile	-14652
▁specially	-14653
त्रि	-14654
▁nom	-14655
▁धोखे	-14656
सायनिक	-14657
▁flesh	-14658
▁क्लिप	-14659
▁claims	-14660
▁व्याख्यान	-14661
▁recommendations	-14662
DF	-14663
१९	-14664
णता	-14665
मंच	-14666
▁09	-14667
▁La	-14668
ग्रा	-14669
टकों	-14670
▁viz	-14671
▁गले	-14672
▁सहे	-14673
allel	-14674
▁Mercy	-14675
▁innoc	-14676
▁पूछते	-14677
▁ट्रांस	-14678
▁Details	-14679
▁faculty	-14680
▁अनिवासी	-14681
▁subjected	-14682
▁controlled	-14683
ria	-14684
ूमत	-14685
▁-,	-14686
upon	-14687
▁वैसी	-14688
▁संगत	-14689
▁पत्रों	-14690
▁Perhaps	-14691
▁प्रचालन	-14692
▁संदेशों	-14693
▁अवसंरचना	-14694
TER	-14695
law	-14696
▁EV	-14697
▁डु	-14698
ोल्ड	-14699
▁Ara	-14700
▁eve	-14701
▁बादल	-14702
asures	-14703
▁Audio	-14704
▁delic	-14705
▁usage	-14706
▁sovere	-14707
▁अनुचित	-14708
▁साक्षा	-14709
▁permiss	-14710
▁weapons	-14711
▁मुख्यतः	-14712
जरत	-14713
सम्	-14714
▁myth	-14715
▁गलती	-14716
▁पाठक	-14717
▁समाम	-14718
▁Lanka	-14719
▁Russia	-14720
▁shrine	-14721
▁मद्रास	-14722
▁ignorance	-14723
▁investors	-14724
▁receiving	-14725
▁कार्यकारी	-14726
र्भ	-14727
▁47	-14728
▁1986	-14729
▁ज़बान	-14730
ानुभूति	-14731
▁मुशरिक	-14732
▁determine	-14733
▁terrorist	-14734
जक	-14735
☻☻	-14736
ंकी	-14737
उसका	-14738
खाना	-14739
▁Tir	-14740
▁fly	-14741
▁bact	-14742
▁कराई	-14743
▁नौका	-14744
▁मोहन	-14745
▁निक्ष	-14746
▁recovery	-14747
▁sentence	-14748
▁अस्वीकार	-14749
▁intention	-14750
▁CP	-14751
▁Far	-14752
हाबाद	-14753
चन्द्र	-14754
▁incom	-14755
▁कराता	-14756
▁player	-14757
▁resort	-14758
DA	-14759
▁८	-14760
HER	-14761
खार	-14762
▁नम	-14763
▁ओवर	-14764
▁MSME	-14765
▁deaf	-14766
▁scene	-14767
▁phenomen	-14768
▁उत्पादकता	-14769
▁components	-14770
▁accompanied	-14771
▁धान	-14772
▁Prop	-14773
▁अतएव	-14774
▁illeg	-14775
▁kings	-14776
▁proxy	-14777
▁covers	-14778
▁minute	-14779
▁package	-14780
▁companions	-14781
▁Universities	-14782
कोर	-14783
क़ात	-14784
▁उदय	-14785
tched	-14786
बार्ड	-14787
▁ungr	-14788
▁strange	-14789
▁Download	-14790
EF	-14791
हान	-14792
umph	-14793
ंगें	-14794
ण्डल	-14795
विंद	-14796
▁Wik	-14797
▁ओपन	-14798
▁Bhut	-14799
▁सृजित	-14800
त्रियों	-14801
▁कवियों	-14802
▁संयोजन	-14803
▁Location	-14804
9)	-14805
▁1/	-14806
long	-14807
▁अवल	-14808
pping	-14809
lihood	-14810
ailable	-14811
▁Person	-14812
▁danger	-14813
▁unseen	-14814
▁प्रदत्त	-14815
▁ceremony	-14816
▁educated	-14817
▁आयुर्वेद	-14818
▁monitoring	-14819
▁व्युत्पन्न	-14820
थन	-14821
ताप	-14822
ऊँगा	-14823
पक्व	-14824
▁mun	-14825
▁घुस	-14826
▁धूम	-14827
peror	-14828
र्कों	-14829
▁vide	-14830
▁अड्ड	-14831
▁इस्प	-14832
▁वृत्त	-14833
gorithm	-14834
▁bridge	-14835
▁Chaitanya	-14836
▁producing	-14837
▁admonition	-14838
ँट	-14839
ंर	-14840
फ़त	-14841
विदा	-14842
▁mak	-14843
▁fasc	-14844
▁बगैर	-14845
▁वाणी	-14846
▁Binoy	-14847
▁श्रेण	-14848
▁deities	-14849
▁structures	-14850
सेल	-14851
wing	-14852
कक्ष	-14853
ताकि	-14854
▁nav	-14855
ATORS	-14856
▁Ever	-14857
▁जरुर	-14858
▁गाड़ी	-14859
▁stress	-14860
▁दिखाना	-14861
▁इंजीनियरी	-14862
वो	-14863
ग्स	-14864
ेयर	-14865
▁ego	-14866
▁ताज	-14867
▁acce	-14868
▁Major	-14869
▁cloth	-14870
▁कालेज	-14871
▁खोजें	-14872
▁Meeting	-14873
▁browser	-14874
▁उपेक्षा	-14875
App	-14876
्रु	-14877
▁ढाँ	-14878
arest	-14879
▁1995	-14880
▁worst	-14881
▁पशुओं	-14882
▁होस्ट	-14883
▁पहुँचने	-14884
▁मित्रता	-14885
▁समकालीन	-14886
▁familiar	-14887
▁विकासशील	-14888
▁strategic	-14889
▁उपलब्धियों	-14890
pad	-14891
जाने	-14892
▁नाश	-14893
▁lege	-14894
▁urge	-14895
▁मंगल	-14896
▁आँखें	-14897
attered	-14898
▁cotton	-14899
▁अज्ञान	-14900
▁रिश्ते	-14901
▁aggress	-14902
CP	-14903
▁फूँ	-14904
▁clar	-14905
▁नकदी	-14906
▁Short	-14907
▁TRANSL	-14908
▁prefer	-14909
▁कर्मों	-14910
▁ज़रूरत	-14911
▁indirect	-14912
ुरु	-14913
ड़कर	-14914
▁ऊतक	-14915
▁क्यू	-14916
▁माननीय	-14917
▁enforce	-14918
API	-14919
ंचल	-14920
रेत	-14921
▁फाइ	-14922
▁node	-14923
▁चौथा	-14924
▁बढ़ो	-14925
▁bears	-14926
▁निरूप	-14927
▁संजाल	-14928
▁Rights	-14929
▁इस्पात	-14930
▁रखरखाव	-14931
▁creates	-14932
▁सौंदर्य	-14933
▁Certainly	-14934
▁Executive	-14935
▁substantial	-14936
ham	-14937
ठीक	-14938
▁03	-14939
oram	-14940
▁pix	-14941
▁लीग	-14942
▁Orig	-14943
▁बाढ़	-14944
▁खतरनाक	-14945
▁Install	-14946
ictionary	-14947
▁infinite	-14948
▁reckoning	-14949
्चर	-14950
्पण	-14951
▁वें	-14952
▁वैय	-14953
▁सीन	-14954
azing	-14955
▁(195	-14956
▁कंपन	-14957
▁जुटा	-14958
▁हमपर	-14959
्टवेयर	-14960
▁seeks	-14961
▁League	-14962
▁निपटान	-14963
▁समामेल	-14964
▁sharing	-14965
▁परिपक्व	-14966
▁प्रॉक्सी	-14967
▁classical	-14968
▁encouraged	-14969
fl	-14970
Pro	-14971
▁माध	-14972
▁exem	-14973
▁myst	-14974
▁नौकर	-14975
▁मणिप	-14976
▁स्वै	-14977
▁Hence	-14978
▁fluid	-14979
▁wrath	-14980
▁निमित	-14981
भूतियों	-14982
▁permit	-14983
▁retrie	-14984
▁अन्याय	-14985
▁prophet	-14986
▁realise	-14987
▁मुकाबले	-14988
▁dwelling	-14989
▁testimony	-14990
ईमान	-14991
ूल्य	-14992
▁cup	-14993
▁मग़	-14994
▁वजन	-14995
▁Burn	-14996
▁salt	-14997
▁उत्‍	-14998
▁गयीं	-14999
▁घाटा	-15000
▁मुहा	-15001
▁औज़ार	-15002
▁कृत्य	-15003
▁लम्बे	-15004
▁सेंटर	-15005
▁diplom	-15006
▁इन्द्र	-15007
▁जिन्ना	-15008
▁eminent	-15009
▁musical	-15010
▁publish	-15011
▁internet	-15012
▁discipline	-15013
gage	-15014
leum	-15015
स्सी	-15016
▁कोण	-15017
▁बडा	-15018
There	-15019
iable	-15020
न्नों	-15021
▁chair	-15022
▁ended	-15023
▁Sector	-15024
▁हैसियत	-15025
▁imagine	-15026
▁पहाड़ों	-15027
▁सितम्बर	-15028
▁valuable	-15029
राष्ट्रपति	-15030
ड्	-15031
गृह	-15032
ताज	-15033
वेल	-15034
हीत	-15035
खाने	-15036
▁मत्	-15037
liest	-15038
▁HTTP	-15039
▁tear	-15040
akrish	-15041
▁परवाह	-15042
▁रचनाओं	-15043
▁lessons	-15044
▁prevail	-15045
▁महासागर	-15046
▁ignorant	-15047
▁परिस्थिति	-15048
▁innovative	-15049
▁TRANSLATORS	-15050
▁फूट	-15051
▁bull	-15052
▁शादी	-15053
ashion	-15054
फ़ारिश	-15055
▁chrom	-15056
▁टैगोर	-15057
▁डोमेन	-15058
▁सुनकर	-15059
▁सुनाई	-15060
▁पब्लिक	-15061
▁tremend	-15062
▁normally	-15063
▁subsequent	-15064
पीठ	-15065
लाप	-15066
When	-15067
▁Shiv	-15068
▁pron	-15069
▁oaths	-15070
▁quarter	-15071
▁testing	-15072
▁मध्यस्थ	-15073
▁वस्तुतः	-15074
operation	-15075
▁arranged	-15076
▁सामान्यतया	-15077
▁distinction	-15078
name	-15079
क्षे	-15080
▁Sin	-15081
▁इबर	-15082
▁नरम	-15083
▁नूर	-15084
▁शब्	-15085
श्चित	-15086
▁दलों	-15087
▁Koran	-15088
▁रूपये	-15089
▁lesson	-15090
▁Forward	-15091
▁Medical	-15092
▁northern	-15093
▁शक्तियां	-15094
▁स्ट्रिंग	-15095
▁अंग्रेज़ी	-15096
गान	-15097
शास	-15098
▁अच	-15099
तिपय	-15100
श्ती	-15101
▁Cle	-15102
▁NAB	-15103
▁गोरा	-15104
▁सुनी	-15105
ानुसार	-15106
▁Center	-15107
▁दार्शनिक	-15108
▁resulting	-15109
बाप	-15110
▁देह	-15111
acing	-15112
▁सोचते	-15113
▁debate	-15114
▁इलाकों	-15115
▁त्वरित	-15116
▁व्यर्थ	-15117
▁biggest	-15118
▁despite	-15119
▁constitu	-15120
▁विज्ञापन	-15121
▁Selection	-15122
▁रखनेवालों	-15123
▁authorised	-15124
▁presentation	-15125
EX	-15126
asy	-15127
ड़ो	-15128
ding	-15129
प्रण	-15130
▁SSL	-15131
ounce	-15132
▁दांत	-15133
▁Somet	-15134
▁अनन्त	-15135
▁कोयला	-15136
▁client	-15137
▁प्रातः	-15138
▁mothers	-15139
▁एक्सचेंज	-15140
▁प्रतिलिपि	-15141
▁respondent	-15142
▁प्रशिक्षित	-15143
▁Fe	-15144
itra	-15145
▁	-15146
e	-15147
t	-15148
a	-15149
ा	-15150
o	-15151
i	-15152
n	-15153
क	-15154
र	-15155
r	-15156
s	-15157
े	-15158
h	-15159
्	-15160
न	-15161
ि	-15162
l	-15163
d	-15164
स	-15165
त	-15166
ह	-15167
ं	-15168
ी	-15169
म	-15170
c	-15171
u	-15172
ो	-15173
य	-15174
m	-15175
प	-15176
ल	-15177
f	-15178
व	-15179
p	-15180
g	-15181
द	-15182
y	-15183
ज	-15184
,	-15185
w	-15186
ु	-15187
.	-15188
b	-15189
ग	-15190
ब	-15191
ै	-15192
v	-15193
अ	-15194
श	-15195
ए	-15196
उ	-15197
च	-15198
़	-15199
भ	-15200
ू	-15201
।	-15202
ट	-15203
औ	-15204
ध	-15205
थ	-15206
k	-15207
ख	-15208
ष	-15209
आ	-15210
ड	-15211
(	-15212
)	-15213
-	-15214
A	-15215
इ	-15216
T	-15217
I	-15218
S	-15219
ण	-15220
फ	-15221
1	-15222
0	-15223
ई	-15224
C	-15225
M	-15226
P	-15227
H	-15228
छ	-15229
2	-15230
'	-15231
x	-15232
B	-15233
R	-15234
D	-15235
E	-15236
N	-15237
W	-15238
ँ	-15239
G	-15240
:	-15241
"	-15242
O	-15243
ृ	-15244
L	-15245
ौ	-15246
j	-15247
ओ	-15248
ठ	-15249
9	-15250
;	-15251
F	-15252
4	-15253
3	-15254
5	-15255
/	-15256
?	-15257
ऐ	-15258
घ	-15259
झ	-15260
q	-15261
%	-15262
à	-15263
ढ	-15264
U	-15265
8	-15266
6	-15267
ः	-15268
K	-15269
ॉ	-15270
z	-15271
¤	-15272
7	-15273
V	-15274
_	-15275
!	-15276
Y	-15277
J	-15278
ञ	-15279
”	-15280
“	-15281
ऊ	-15282
’	-15283
]	-15284
[	-15285
&	-15286
‍	-15287
‘	-15288
¥	-15289
ऋ	-15290
>	-15291
ऑ	-15292
०	-15293
१	-15294
<	-15295
–	-15296
Q	-15297
#	-15298
{	-15299
}	-15300
—	-15301
२	-15302
Z	-15303
X	-15304
⁄	-15305
९	-15306
°	-15307
	-15308
	-15309
	-15310
\	-15311
*	-15312
५	-15313
@	-15314
३	-15315
८	-15316
	-15317
+	-15318
६	-15319
४	-15320
=	-15321
७	-15322
̧	-15323
¿	-15324
̈	-15325
ॅ	-15326
$	-15327
ङ	-15328
®	-15329
	-15330
̄	-15331
	-15332
॰	-15333
`	-15334
ऱ	-15335
μ	-15336
~	-15337
	-15338
ऍ	-15339
¦	-15340
|	-15341
	-15342
	-15343
¡	-15344
е	-15345
а	-15346
	-15347
«	-15348
ॊ	-15349
¬	-15350
ॆ	-15351
☻	-15352
¶	-15353
т	-15354
и	-15355
é	-15356
н	-15357
·	-15358
о	-15359
	-15360
	-15361
ळ	-15362
	-15363
	-15364
р	-15365
£	-15366
	-15367
л	-15368
с	-15369
ā	-15370
É	-15371
в	-15372
д	-15373
к	-15374
á	-15375
і	-15376
í	-15377
葉	-15378
	-15379
§	-15380
м	-15381
у	-15382
ü	-15383
×	-15384
ö	-15385
॥	-15386
з	-15387
п	-15388
ऎ	-15389
	-15390
ä	-15391
^	-15392
ऩ	-15393
ğ	-15394
ы	-15395
♫	-15396
	-15397
ó	-15398
­	-15399
ж	-15400
ı	-15401
©	-15402
я	-15403
¢	-15404
ь	-15405
ç	-15406
ş	-15407
б	-15408
♪	-15409
П	-15410
ñ	-15411
•	-15412
ч	-15413
₹	-15414
☺	-15415
ł	-15416
й	-15417
Â	-15418
è	-15419
г	-15420
ú	-15421
ī	-15422
ś	-15423
ॄ	-15424
ー	-15425
ш	-15426
қ	-15427
ã	-15428
	-15429
ţ	-15430
ト	-15431
ン	-15432
ř	-15433
â	-15434
ю	-15435
Θ	-15436
′	-15437
ň	-15438
し	-15439
ą	-15440
š	-15441
ク	-15442
	-15443
ッ	-15444
	-15445
ć	-15446
č	-15447
ū	-15448
В	-15449
ъ	-15450
̋	-15451
»	-15452
Ö	-15453
ě	-15454
ṭ	-15455
ő	-15456
є	-15457
С	-15458
ऌ	-15459
å	-15460
̊	-15461
	-15462
Ž	-15463
ネ	-15464
用	-15465
を	-15466
ワ	-15467
ॠ	-15468
Ś	-15469
Н	-15470
容	-15471
Č	-15472
	-15473
ë	-15474
い	-15475
ま	-15476
О	-15477
॔	-15478
す	-15479
	-15480
ę	-15481
К	-15482
ṇ	-15483
て	-15484
ō	-15485
ऴ	-15486
ऽ	-15487
−	-15488
に	-15489
	-15490
Ň	-15491
ү	-15492
ˇ	-15493
М	-15494
ғ	-15495
ऒ	-15496
Ş	-15497
́	-15498
イ	-15499
Ç	-15500
の	-15501
ア	-15502
ê	-15503
З	-15504
ө	-15505
ṛ	-15506
た	-15507
Ę	-15508
А	-15509
で	-15510
	-15511
щ	-15512
ï	-15513
Ā	-15514
ů	-15515
―	-15516
√	-15517
が	-15518
±	-15519
ô	-15520
ø	-15521
Ж	-15522
И	-15523
ṣ	-15524
†	-15525
ò	-15526
Ч	-15527
ұ	-15528
ž	-15529
Б	-15530
Қ	-15531
ا	-15532
ل	-15533
Î	-15534
ң	-15535
॒	-15536
ス	-15537
ラ	-15538
ė	-15539
ド	-15540
ý	-15541
ф	-15542
х	-15543
ц	-15544
ә	-15545
ż	-15546
̇	-15547
্	-15548
„	-15549
る	-15550
õ	-15551
ŏ	-15552
ॐ	-15553
র	-15554
バ	-15555
	-15556
ē	-15557
Ĺ	-15558
ń	-15559
π	-15560
な	-15561
続	-15562
Á	-15563
Ü	-15564
Š	-15565
Д	-15566
■	-15567
か	-15568
接	-15569
	-15570
Ó	-15571
ă	-15572
‡	-15573
÷	-15574
ু	-15575
と	-15576
オ	-15577
コ	-15578
Ć	-15579
ĺ	-15580
ť	-15581
Т	-15582
॑	-15583
ন	-15584
া	-15585
ṃ	-15586
→	-15587
ॣ	-15588
加	-15589
Ð	-15590
İ	-15591
Р	-15592
ṅ	-15593
€	-15594
。	-15595
さ	-15596
ら	-15597
メ	-15598
ル	-15599
ロ	-15600
参	-15601
Å	-15602
æ	-15603
̨	-15604
Δ	-15605
ώ	-15606
م	-15607
リ	-15608
様	-15609
স	-15610
≤	-15611
く	-15612
せ	-15613
フ	-15614
β	-15615
ё	-15616
দ	-15617
ব	-15618
ḥ	-15619
り	-15620
れ	-15621
ん	-15622
プ	-15623
定	-15624
Ä	-15625
Ú	-15626
θ	-15627
ι	-15628
І	-15629
‐	-15630
ウ	-15631
更	-15632
示	-15633
表	-15634
Г	-15635
У	-15636
ї	-15637
⇒	-15638
─	-15639
カ	-15640
レ	-15641
変	-15642
τ	-15643
φ	-15644
س	-15645
∶	-15646
だ	-15647
パ	-15648
マ	-15649
作	-15650
動	-15651
知	-15652
脱	-15653
設	-15654
通	-15655
離	-15656
î	-15657
þ	-15658
œ	-15659
ت	-15660
ॡ	-15661
ḍ	-15662
≥	-15663
⋯	-15664
そ	-15665
エ	-15666
力	-15667
名	-15668
有	-15669
Ê	-15670
ĭ	-15671
إ	-15672
ح	-15673
ر	-15674
চ	-15675
ভ	-15676
ষ	-15677
∕	-15678
➣	-15679
き	-15680
っ	-15681
つ	-15682
は	-15683
も	-15684
ニ	-15685
ム	-15686
付	-15687
既	-15688
自	-15689
ŕ	-15690
ŭ	-15691
Ż	-15692
Ω	-15693
λ	-15694
آ	-15695
ج	-15696
ق	-15697
ن	-15698
ক	-15699
ঠ	-15700
থ	-15701
ী	-15702
ḷ	-15703
、	-15704
け	-15705
こ	-15706
グ	-15707
一	-15708
中	-15709
入	-15710
切	-15711
前	-15712
國	-15713
成	-15714
擁	-15715
新	-15716
要	-15717
認	-15718
連	-15719
関	-15720
째	-15721
Ã	-15722
û	-15723
Đ	-15724
ź	-15725
ș	-15726
Λ	-15727
ν	-15728
ي	-15729
Ṛ	-15730
え	-15731
タ	-15732
ダ	-15733
ピ	-15734
不	-15735
他	-15736
使	-15737
失	-15738
字	-15739
当	-15740
態	-15741
承	-15742
抹	-15743
敗	-15744
消	-15745
漢	-15746
状	-15747
登	-15748
秦	-15749
見	-15750
録	-15751
預	-15752
	-15753
	-15754
	-15755
À	-15756
Æ	-15757
Ø	-15758
ß	-15759
ð	-15760
Ľ	-15761
Ō	-15762
Ř	-15763
ư	-15764
ț	-15765
ə	-15766
ʿ	-15767
α	-15768
γ	-15769
η	-15770
ω	-15771
Я	-15772
э	-15773
Ө	-15774
،	-15775
ة	-15776
ṁ	-15777
ờ	-15778
‰	-15779
あ	-15780
み	-15781
デ	-15782
元	-15783
再	-15784
利	-15785
削	-15786
可	-15787
庸	-15788
戻	-15789
時	-15790
最	-15791
本	-15792
謡	-15793
開	-15794
除	-15795
	-15796
￼	-15797
Í	-15798
Ă	-15799
Ą	-15800
Ě	-15801
ģ	-15802
ľ	-15803
Ł	-15804
Ţ	-15805
ː	-15806
̃	-15807
ͧ	-15808
ε	-15809
κ	-15810
σ	-15811
ψ	-15812
Ш	-15813
د	-15814
←	-15815
∂	-15816
∞	-15817
∣	-15818
∨	-15819
≠	-15820
⌈	-15821
⌉	-15822
⌊	-15823
⌋	-15824
⌘	-15825
⏎	-15826
う	-15827
び	-15828
へ	-15829
べ	-15830
め	-15831
サ	-15832
ジ	-15833
ブ	-15834
ヘ	-15835
ポ	-15836
ョ	-15837
並	-15838
保	-15839
傭	-15840
全	-15841
内	-15842
出	-15843
存	-15844
後	-15845
悠	-15846
手	-15847
明	-15848
替	-15849
洋	-15850
点	-15851
由	-15852
病	-15853
編	-15854
耀	-15855
能	-15856
覧	-15857
集	-15858
順	-15859
	-15860
	-15861
Ñ	-15862
Ô	-15863
Õ	-15864
Û	-15865
ì	-15866
ù	-15867
ď	-15868
ļ	-15869
Ť	-15870
ű	-15871
ų	-15872
ơ	-15873
ǁ	-15874
ɓ	-15875
ɪ	-15876
ʼ	-15877
̆	-15878
̪	-15879
Β	-15880
Κ	-15881
Μ	-15882
Π	-15883
ί	-15884
ζ	-15885
ο	-15886
ρ	-15887
ό	-15888
Ѕ	-15889
Е	-15890
Л	-15891
Х	-15892
Ы	-15893
Ү	-15894
֠	-15895
֦	-15896
ֹ	-15897
׃	-15898
أ	-15899
ك	-15900
و	-15901
ی	-15902
॓	-15903
ਦ	-15904
ਲ	-15905
ਿ	-15906
ੀ	-15907
ੱ	-15908
પ	-15909
બ	-15910
ા	-15911
ુ	-15912
ẻ	-15913
ủ	-15914
‚	-15915
═	-15916
ぎ	-15917
ち	-15918
よ	-15919
ァ	-15920
ィ	-15921
ォ	-15922
テ	-15923
ベ	-15924
モ	-15925
上	-15926
下	-15927
両	-15928
了	-15929
信	-15930
優	-15931
先	-15932
共	-15933
分	-15934
化	-15935
匿	-15936
同	-15937
否	-15938
含	-15939
員	-15940
堀	-15941
報	-15942
境	-15943
外	-15944
大	-15945
妖	-15946
始	-15947
対	-15948
小	-15949
広	-15950
度	-15951
待	-15952
従	-15953
必	-15954
情	-15955
憂	-15956
所	-15957
打	-15958
択	-15959
拒	-15960
揺	-15961
数	-15962
断	-15963
方	-15964
曜	-15965
未	-15966
正	-15967
毎	-15968
求	-15969
満	-15970
溶	-15971
熔	-15972
版	-15973
環	-15974
直	-15975
短	-15976
確	-15977
秒	-15978
細	-15979
終	-15980
置	-15981
羊	-15982
者	-15983
致	-15984
般	-15985
色	-15986
行	-15987
複	-15988
規	-15989
詳	-15990
设	-15991
象	-15992
起	-15993
